/**
  ******************************************************************************
  * @file    gesture_cnn_data_params.c
  * @author  AST Embedded Analytics Research Platform
  * @date    Sat Feb  3 17:16:14 2024
  * @brief   AI Tool Automatic Code Generator for Embedded NN computing
  ******************************************************************************
  * Copyright (c) 2024 STMicroelectronics.
  * All rights reserved.
  *
  * This software is licensed under terms that can be found in the LICENSE file
  * in the root directory of this software component.
  * If no LICENSE file comes with this software, it is provided AS-IS.
  ******************************************************************************
  */

#include "gesture_cnn_data_params.h"


/**  Activations Section  ****************************************************/
ai_handle g_gesture_cnn_activations_table[1 + 2] = {
  AI_HANDLE_PTR(AI_MAGIC_MARKER),
  AI_HANDLE_PTR(NULL),
  AI_HANDLE_PTR(AI_MAGIC_MARKER),
};




/**  Weights Section  ********************************************************/
AI_ALIGNED(32)
const ai_u64 s_gesture_cnn_weights_array_u64[1617] = {
  0xbe11c11ebccc6c16U, 0x3e53a526bdef6115U, 0x3e5942f83dbb1f65U, 0xbe7cf7d23d8c1fe9U,
  0xbe54a830be198df6U, 0x3c8afe243da7a292U, 0x3c9f83b8bcab2425U, 0x3e06237dbdae88c3U,
  0x3e2a8d46bd7071e6U, 0xbdef0dd4bc217087U, 0xbe5c31a6bdcd3172U, 0xbca16d7ebd8292c1U,
  0x3d96d9f93c9bf16cU, 0x3cc10270bdb61d19U, 0xbc52db93bd0dd28dU, 0x3d4131a9be790ddaU,
  0xbe78c7cf3d996ec8U, 0xbd41c12cbdddb392U, 0xbe3887cabd06938fU, 0xbe6cf7d8be552b63U,
  0x3c0464cfbd340181U, 0xbc62277fbcf9ada1U, 0xbe08fb16be3c1612U, 0x3e5303cf3e5a78aeU,
  0xbdeea099bd40a0dfU, 0xbe3d0ed33e19168aU, 0xbdfc35593e278bd6U, 0xbdc4136b3e0e4dd5U,
  0xbd56ba5c3e5544f8U, 0x3dd320ebbcf7a86dU, 0xbe7025d93d137163U, 0x3d0cce083cb92300U,
  0xbe1b61213dc1a680U, 0xbda98a0b3e064b11U, 0x3d90f8623d91a948U, 0x3e12020e3ca41c8fU,
  0x3e4249f8be46f0e0U, 0xbdd27d7ab8ade800U, 0xbe3a905dbe1dd0baU, 0x3d9a497c3e3dfec4U,
  0x3cc553b0be13cb11U, 0xbd156884be47447eU, 0x3cea1ae0bdc22e02U, 0xbc5d10e03e558c02U,
  0xbe643fc6bc3a0f10U, 0xbd9289fa3dff30d0U, 0x3d061a70bd0f9a80U, 0xbbeb21a03df0b7c0U,
  0x3e27bd44be0010b6U, 0x3badbc603d931928U, 0x3e20b6f2be073cefU, 0xbddc003ebe29a6d7U,
  0xbe496efebd69fc28U, 0xbc7dde003ce4c070U, 0xbe17901dbe6d17b9U, 0xbe721362be650b43U,
  0xbd4d43383d9f9210U, 0xbe04df3a3e52c398U, 0xbe2af660be39fa6dU, 0xbe18403cbe559573U,
  0xbe02c4863dbf56ccU, 0xbe1b353bbd3b53f0U, 0xbe3ce7503df5cef8U, 0xbd21801c3e65e9b6U,
  0x3e58d0e63dfa2270U, 0xbe3d91e1be3cbc24U, 0xbe5e8e59bcee0b48U, 0x3d7215a03d3f16f0U,
  0xbc2ad6f0bd5191a4U, 0x3e08bff63e5b2deaU, 0xbdf57b353e593c3cU, 0x3c9fb1f03e31ad24U,
  0xbe4c6c1e3e27a93cU, 0x3de8dfe73e19f17dU, 0x3edce3a7bdfc48faU, 0xbdb49009bdba083aU,
  0xbe03f32dbe04c661U, 0x3e287436bdd25935U, 0x3e011b133df04890U, 0xbe553d623e49f1a3U,
  0xbd8ee9883d8e5ed1U, 0xbe20530dbd8bb2e1U, 0x3e73e8a03da813b9U, 0x3d1e63a93e9ff57bU,
  0x3dbe9480bd7309a0U, 0xbe05e1763e2aabcbU, 0x3dcf73eabe44349aU, 0x3de4b3613d3338edU,
  0xbf1e61b93c5dfc02U, 0x3e4e286dbdecee7dU, 0xbd43193dbdce76abU, 0xbdf536fcbe98f006U,
  0xbd487f6c3e2155d9U, 0x3e5e5b30bde3c998U, 0xbea6fe12be3e9f75U, 0x3e57b3fa3e52bf46U,
  0x3e4ded2d3d07ed69U, 0xbebb7e583f00505dU, 0x3e93e9eebe82164bU, 0x3eafeacebc5a77ddU,
  0x3da93934bee1ad1eU, 0xbda0f490be1fe891U, 0xbb3c42463cbe65d3U, 0x3e722e25bd353216U,
  0x3e9281be3e29ad4bU, 0x3de4b1bfbe5a4f27U, 0x3d09afde3f1339d8U, 0x3e3e5f99beca2c93U,
  0x3dea0fe63dc844c7U, 0xbd80aa5cbe2f53afU, 0xbdbf492bbe7759c6U, 0xbd472b0b3d3e225dU,
  0xbe550e573d928e4aU, 0x3e4b197bbe4ad4f9U, 0x3d238f2f3e15c38fU, 0x3dbd83cbbe1d3d1fU,
  0x3c041bf8bdb1dc8bU, 0xbdb1d3293d913162U, 0x3bebadedbd29c6beU, 0x3d4e2be8bd7fab0eU,
  0xbd44df693e0b5e45U, 0xbe320b36be795e2cU, 0x3e54b1ca3d8316a7U, 0x3e5144c83e30e85bU,
  0xbd808d673dbb35f2U, 0x3c913701be5bc4f7U, 0x3e202d7abe84be93U, 0x3e3ed1edbe031071U,
  0xbe104e263dee874eU, 0x3bbc67e73e1c11d4U, 0xbe4160da3db79386U, 0xbe80e7f1be55f41bU,
  0xbe75555cbe687dbeU, 0x3d54e0043e12a95bU, 0x3e08e062bcf115d5U, 0xbd5a04a6bdb7f8eeU,
  0xbe88a135bd57424fU, 0xbde8597c3c8e6c24U, 0xbe13cb04be240546U, 0x3cf97007be70da7fU,
  0xbd2a0fb7bdbc2535U, 0x3e1eee1ebe14b38bU, 0xbe03d50bbd8a0bceU, 0x3d8b1982bca1a9feU,
  0xbe25773f3d8f6447U, 0x3d541d4a3eb7730fU, 0xbdefe19a3e5fc2adU, 0xbe4dedc53e83df17U,
  0x3ec0ea563d0a92d7U, 0xbd6ddb2f3d8b2d36U, 0x3df017973db6880eU, 0xbd6480d83c826b25U,
  0x3e096d3fbdcd9f83U, 0x3e566bfb3dce7b5dU, 0x3c47c3a33e8fe73dU, 0xbdcf6e293da7ca81U,
  0xbe4e0fef3e8482e4U, 0x3c342ad23e2cce17U, 0x3e3e844dbd36259dU, 0x3e59fe3a3dadd1deU,
  0x3e3337de3c255087U, 0xbcdc4e773e516c65U, 0x3d9633163e725e8cU, 0x3d9f1ed93e69c7fdU,
  0x3d5ef306bbffd296U, 0xbb4bbbc3bc2ab9f7U, 0x3edc43f3be176cedU, 0xbe0b86503e4c78b3U,
  0x3d3b3e4d3e607300U, 0x3e911e2dbec7a754U, 0xbf0827babc3aab4dU, 0xbec302923e998a28U,
  0x3e8b977a3e952d44U, 0x3e6b0ae6be16f703U, 0x3c22f3fabac1de03U, 0xbd3be9323e8d2926U,
  0x3dbee6003e6aee84U, 0x3e12103f3e0774c0U, 0x3f168fdabe55e07cU, 0xbcfba62e3e927228U,
  0xbe1451d43e537377U, 0x3e2ed15c3becc644U, 0x3d84e5fbbe5ae24fU, 0x3e6cff8abe84994eU,
  0xbd1bdf4a3eaefa9bU, 0x3e8a298f3e19ca5aU, 0xbe90e155bea03b0dU, 0xbd67cb8d3da70f52U,
  0x3e4923b6bdd6ddddU, 0x3e5026953dad2f3dU, 0xbd2b1c5dbc25ac56U, 0x3c345ce33e632f4aU,
  0xbe35dd68be3b4b41U, 0x3da5a2793e6fb93aU, 0x3d4d01ab3dbbe8c0U, 0xbe71669ebf1381e3U,
  0xbe496c373dd449d6U, 0x3e5a3582be0fe810U, 0x3b16f01d3cd90011U, 0x3ee315933f1ed0a5U,
  0x3eb6dce43dc5bec0U, 0xbd84d1303c00ded2U, 0xbb3ead673e094cfaU, 0xbe0b7abe3caa737bU,
  0xbe2700a0be963a94U, 0xbc127bcd3d0fafcdU, 0x3d883ed5bd3705c6U, 0xbdcafaa73e750b1cU,
  0x3e33f33abe7b303eU, 0x3ef86858bbf043cdU, 0x3cd26544bda83fe8U, 0x3c0257433e1b5afaU,
  0x3e60ffbb3e01c119U, 0xbe111e20bea82225U, 0xbe48d650bdc2ef70U, 0x3dcd55963e10ac0bU,
  0x3d80520cbe1f0b68U, 0xbcfdc378be49aaefU, 0xbd96ae743c4cad40U, 0x3e26b04cbe2be4b4U,
  0xbe671518be1e045eU, 0x3d8e31ac3d0d5630U, 0xbdf462453e0266e8U, 0xbcd657503e0b4e22U,
  0x3e28af9c3c8ec2b0U, 0xbe6a4b233df9537cU, 0xbd589fd4be3f4052U, 0x3d7057d0bcfb7518U,
  0xbe1f28d43cde82b0U, 0x3d1083e83d294e48U, 0xbcbde448be6665c5U, 0x3e0a5edcbdfdbb20U,
  0xbe16eeccbdf8e341U, 0x3e2bd514be48ca4fU, 0xbc662670bdfd298aU, 0xbd36dcc0bd227da0U,
  0x3e108df8bd4a2ed8U, 0x3c712da03d003350U, 0xbdda97a03ce36100U, 0xbe3bb0d23e29d5b2U,
  0x3c10b7803d8bdb80U, 0x3e04bafabcdbddd0U, 0xbc95d0383c9cc260U, 0xbe07edde3e65e272U,
  0xbdcbac3ebd462cecU, 0x3e06ebdabd54e980U, 0xbe17d5a2bc110d80U, 0x3d48d8903e2b69d8U,
  0xbd7c46f4bc34ae10U, 0xbe2f47e7be6eabc5U, 0x3e2ae1dabd6d4054U, 0xbc9ea3b03dc928e4U,
  0xbc5b85febde3c2b5U, 0xbd6d1da1bea2d50cU, 0xb9c21bddbe8c45b6U, 0x3d4ef044bc9b33f7U,
  0xbd45b1a4bd8164cdU, 0xbd7065803d950c7dU, 0xbd058559bdfb3140U, 0x3d2a9d2e3e3bfb95U,
  0xbe62c9003e8f1ae9U, 0xbbf0aa2e3e1b9a00U, 0x3e24e83abdf79a0eU, 0x3e81b8303daedeb3U,
  0xbcb30a8e3e8458f3U, 0x3e092f5abe2e6714U, 0xbb817d923dbe5e1bU, 0xbe08cc21beaad9dcU,
  0x3d1c1f86bc815b40U, 0x3db78f673e080fa4U, 0x3d1699dd3ed2f0ffU, 0x3e8755ca3d272ed0U,
  0xbe1fc46dbe753723U, 0x3c84619f3e9dbc23U, 0x3d29e13b3da89963U, 0xbc9bbd47bdde3bf7U,
  0xbe508ca1be33c3c2U, 0xbdb78e1b3d935a8fU, 0xbe0090b43bcefa4cU, 0xbdd61578bd9c37f9U,
  0x3d85d0333d844557U, 0x3d53b91bbda5dfe9U, 0x3e62454c3d899dcdU, 0xbe6d95183d89590aU,
  0x3daaa1213dca7784U, 0x3e8d5678bdf6d89bU, 0xbf14a4eebd9f6af5U, 0xbe8063d43e169d7dU,
  0x3e4bd524bc1e2784U, 0x3eaa794d3e667676U, 0xbe93ecbbbc00f268U, 0xbdc7f3103dbdd97eU,
  0xbdb3fa28be76ca3aU, 0xbeaec2653e3f9b2cU, 0xbe4026283dc66788U, 0xbeb55557bf06bbb1U,
  0xbeaae2f6be3278beU, 0x3e0d98253e0cdbceU, 0xbd62d6223dfc3615U, 0xbc0dbed03c732a17U,
  0x3e4447593e4e9c64U, 0xbe92c920bdc7043fU, 0xbed1642f3cb9aab8U, 0x3d1133b73e62c642U,
  0xbe12635fbe809dddU, 0x3e682693be8619e9U, 0x3e8068ea3ed6bc3aU, 0x3d76827fbe225aadU,
  0xbd6234123d2b4d1aU, 0x3e571a7dbe11a63eU, 0xbe4e97b9be8f31ddU, 0xbeb141033e660b1aU,
  0x3e5dff623e180584U, 0x3e82d721bcae5029U, 0xbe1df20abe834d35U, 0xbe8840b83d29bd0cU,
  0xbe92ccae3eddfe08U, 0x3d29823fbe281dc1U, 0x3d34c1ecbd6fe574U, 0x3da1d6c93e17bdc4U,
  0xbeaef6c33dab56a2U, 0xbdf7b5d0bd937f8fU, 0x3f4b0f77be6a9f01U, 0xbe0d7b2dbdfe310bU,
  0xbe3455e2be33033aU, 0xbd729380bd96f1a1U, 0x3afcd2debac684deU, 0x3e26f9703c735efbU,
  0xbde1c083be06f84fU, 0x3d9459dc3bbe07c7U, 0x3e603a1dbe9297f8U, 0x3e19d3a33d42cd32U,
  0xbe6cf8f83e9c2e19U, 0xbe3cbef73d81c6b2U, 0x3dda1ad3bd672f17U, 0xbea2265b3e23b255U,
  0x3e10a3853bac37b3U, 0x3e6449e0bccd4d7aU, 0xbd8675723e06d3d9U, 0x3e3a31a13d83b285U,
  0x3d047ebd3da072bdU, 0xbda86476be0814b0U, 0x3dcc86f23de0cf17U, 0xbd06343ebcbdc362U,
  0xbe16411ebe897e77U, 0xbe59d3ec3dad7e0bU, 0x3dc3eae23dc318b5U, 0xbd8ea00e3e22c26dU,
  0xbb3b3962bd1e34ecU, 0xbc3ab3aa3db89145U, 0x3f04d6f53d60b988U, 0x3e57c9553e2a58e3U,
  0xbe4cdf56bf081442U, 0xbdff57fcbdc65b95U, 0x3e4418223d53d530U, 0x3ea7a4debd0a194cU,
  0x3e12ca01be3159deU, 0x3d7e09a9be0a740cU, 0xbf05a9863c973fc1U, 0x3e845c443c8ff9c9U,
  0x3e6fb00c3dcf3e2fU, 0xbda5b92ebdc90c33U, 0x3d46c917be4a0102U, 0xbe07ebc53dac9afcU,
  0xbe56dd7f3e877f7cU, 0x3ef25a88bd314df4U, 0x3db4d2123da1d3beU, 0xbdd974b73d865e38U,
  0xbd52c48c3cd435e0U, 0xbd6b744ebebcde46U, 0xbe755d32bdb03ad4U, 0xbeb0d94abe4a93eaU,
  0x3e6d9ecbbe1df207U, 0x3da096d43e3d2856U, 0xbd814f0c3d426e2cU, 0xbbbd218c3e51238cU,
  0xbdc5058c3d7238b8U, 0xbe796af63b81c474U, 0x3bacbe97be71f620U, 0xbe44d028bdd44e1bU,
  0x3e37ef88be19fc5cU, 0x3d7cbdc53e01fbf4U, 0x3e3e1112be1d7cc5U, 0x3dfcc2ccbe3d814aU,
  0x3e445371be438d74U, 0xbe600af5bdc78c48U, 0xbee5b1d9be702a8cU, 0x3e0d7b533ef6d4d9U,
  0x3e9ef073bd84709cU, 0x3eacccdc3ea964e5U, 0x3e3401d7be07ecb1U, 0x3e8808963dc71113U,
  0xbc97aa603ca55f00U, 0xbe0a8b21bdec9b6fU, 0xbda26c32bedf44e5U, 0xbf88281cbd295128U,
  0x3d73a2fa3c2b923fU, 0x3e01de023e349feeU, 0xbdf76871be85536bU, 0x3e4efbc6bd443cbaU,
  0x3bbf26743c36f3a2U, 0xbe23f30abd31382dU, 0x3c592a4e3d7bc128U, 0xbdfcc7a8bc37afe0U,
  0x3e32626e3e0e4132U, 0x3d9058383da07f97U, 0xbdaae45bbd14df5cU, 0xba93ef90be847fb7U,
  0x3cab46fdbd9800d4U, 0xbe1e34da3e45bac0U, 0x3ced59b93e0964d7U, 0x3dbeaec5be0817c4U,
  0x3e38da95be0565bcU, 0x3cc12b80be38542bU, 0xbe304db6be71f75dU, 0xbd050c5abc88d8b9U,
  0xbd5d10febe80ad76U, 0xbd8c1a14be79c11fU, 0x39346a96bd6f4359U, 0xbe64d1a1bd8e0e27U,
  0xbd1a2e46bcefa4e3U, 0xbe0bba42bd67f69cU, 0x3dc42e94be466a1cU, 0x3dde3f2cbb876c7fU,
  0x3e2941963c90ffc1U, 0x3d0e24083e3a0026U, 0x3dcc4869bd6121f9U, 0xbe56fea0be4adc64U,
  0x3e479672be70ab41U, 0xbe7f4ad13dc7b3aeU, 0xbb43dfc1bdac119aU, 0xbddc8dee3e3dacebU,
  0xbe52e93b3aa98752U, 0x3e74bb183b0175f3U, 0xbe31e9b93dafd3b6U, 0xbd8012763ddd0356U,
  0x3b6b45943deb8ccaU, 0x3e832fbabcdb2e9fU, 0xbd58f24a3dda83aaU, 0x3d2351703e951778U,
  0x3db7580b3d0df22aU, 0x3d8b4785be0e61bdU, 0x3eac8f533dc044a2U, 0xbe0086ccbe216bc9U,
  0x3e2cfb483df04fc8U, 0x3e2b04d63eef4dd7U, 0x3e6dbede3e16f8b3U, 0xbe1a4334bd2096aaU,
  0x3d9b47293dd4806fU, 0x3e269acb3e615e81U, 0x3e102878bea63465U, 0x3e2826bcbdeb394cU,
  0x3edf88c3bd50a1faU, 0xbc5f43773e463f10U, 0x3e9037673d044caeU, 0x3e90d09b3db7b622U,
  0xbdc89526be211f34U, 0xbed0e4083dfb5bcdU, 0x3e89583bbe82696bU, 0x3e02484d3e7d6defU,
  0x3e25add4beaafde1U, 0x3ea20173bddba40cU, 0xbdfbe2ff3ee25390U, 0x3e9f492ebcd51bd3U,
  0x3ed219ef3e236945U, 0xbc807ee93d88843aU, 0xbf4a1cc03f036112U, 0xbe832d5cbe697db2U,
  0x3e919bb23e21a3ceU, 0xbd9d45e93e3b82d0U, 0xbdf15b4bbdb0cb5eU, 0xbd6b284bbe7c05a9U,
  0xbf06254bbe704d7bU, 0x3ecc30b23d048215U, 0xbe105f43bee0a98fU, 0xbe25c50d3e4f6775U,
  0xbd7caac8be1e18e9U, 0x3e85bd103eae320cU, 0x3d2634e43ec7431dU, 0xbdf326803e8c7086U,
  0x3da8448e3da6b85dU, 0xbe26643cbddf3b38U, 0x3e80ab323df74900U, 0xbe2ffc3dbdb270c2U,
  0xbe8acae1bd370883U, 0xbd1fb264bc4fbf42U, 0xbe404353be6d8a83U, 0x3c8134793ea5a1fdU,
  0x3e33a721be2fd452U, 0x3e4747443e249320U, 0xbd3c8aab3dfb01d0U, 0x3d7b98813e55ed3bU,
  0x3e1f4aa43ce373abU, 0x3d55e6053e85c365U, 0x3d3f5a7c3d1e5161U, 0xbecd7922beb14c66U,
  0xbe981d4bbe959719U, 0xbe33618bbe7ae70bU, 0xbe50efaa3e12eac4U, 0x39edaf9a3eaa3860U,
  0x3e2c50773d91f743U, 0x3b922a6d3e722b69U, 0x3e0e0d0a3df52384U, 0x3d04e418bdd0318eU,
  0xbe9822773ea450a0U, 0xbce492563eb5e2fbU, 0x3e2119063d9d04a3U, 0xbe2bf0763f057497U,
  0x3eb5dc22be87636dU, 0xbe9e8639be9a1b97U, 0xbc87dc613e8086cdU, 0xbe48c297be3db171U,
  0x3d67297abe3aea96U, 0x3de6ae1e3ed61b29U, 0x3e2fd50b3ef08a0dU, 0x3e9c2ecdbd23aa47U,
  0xbdc8b8283daa97f9U, 0x3d59edf23d8d02a5U, 0xbd54d797bbc3ad85U, 0x3e4db13f3e0a6a9bU,
  0xbd898370bc66a292U, 0xbe8439f83e250e49U, 0xbe3fab733ec678f5U, 0x3d92b0bb3e9d72bdU,
  0x3ed804143e558c32U, 0x3e75a7cdbb3570a0U, 0x3df5ae853eb694b3U, 0x3f1efe4dbc960741U,
  0x3b59a415bdac920cU, 0x3e960dc1be908cd6U, 0xbe9411c43de3e14cU, 0xbdac1d80bd2746fcU,
  0x3ec131533f1d1e89U, 0x3d6ecaf53dcb8bb3U, 0x3dceb2603e825301U, 0x3dcd5ffebde6f8f2U,
  0x3db05dbb3c7e1cb0U, 0xbde4127d3d644c9cU, 0x3d425a5fbe10801eU, 0xbdd85e8bbc40fc95U,
  0xbd7020fcbed02b07U, 0xbe5de377bf7a43e1U, 0xbec3e784be8628efU, 0xbb3223503cea5b22U,
  0xbf029588bd0455d9U, 0x3eaff7433e236c7bU, 0x3e4e2b883e7dadcaU, 0xbea062acbc772290U,
  0xbd542444be30a67eU, 0x3d1fa9dcbed00aacU, 0xbee199ffbed9ffa7U, 0xbebfdad1bda904b1U,
  0xbd564ee6be3a2482U, 0xbc50704dbd9c2ae0U, 0x3f142fda3c3df99aU, 0x3df1ca073e19c159U,
  0xbe93d5463f07835bU, 0xbd9fdf54bd78daadU, 0x3ddca45a3dd0123aU, 0xb9798d9d3b9bd3c3U,
  0x3d172b9ebe24f619U, 0x3e351404be4f8c51U, 0x3d6855e0be7c9851U, 0xbe0763fd3d359beaU,
  0xbe3b4cc43f25b23eU, 0x3da9876c3e8aca55U, 0xbf427d51be8bbf9dU, 0x3e1999da3dba441aU,
  0x3d3868933e922d8fU, 0xbe68e955bd844d82U, 0x3e5a94863a975350U, 0xbe631598be7760c8U,
  0x3b03a2143e60adceU, 0xbc015e963e6335bdU, 0xbf58b6973c2139f1U, 0xbf2c1cc6be7dbe80U,
  0x3e468057bdb4f6a3U, 0x3e02cd9b3d0dc409U, 0x3e0d1ed93e5baf68U, 0xbe4b159cbc5a638cU,
  0x3e28bed93caedfd3U, 0x3e362c2c3e6999fbU, 0x3df881633db4b7feU, 0xbe3986933e08f4b0U,
  0x3ca80bab3b2f9d6bU, 0xbd0f7136bcf0eceaU, 0x3d0fc4aabe0411b5U, 0x3ed439f83e16418cU,
  0x3e0b665d3e629a33U, 0xbe096fcd3db496a4U, 0x3dc6e09c3da64fbbU, 0xbda2d05abd7c0479U,
  0xbef75090be11bc0bU, 0xbe8732993e18b904U, 0xbe14f8703d510580U, 0x3ea61dafbde2a148U,
  0x3d9eacce3d33c532U, 0x3e6426493deac21eU, 0xbbeb0bb63c4780a5U, 0x3e139826bd40933cU,
  0xbe4c84adbea89771U, 0xbe58fd0bbec065c8U, 0xbeaf383cbe7e0ce8U, 0x3de176df3d516416U,
  0x3e31e5aebeb7004dU, 0x3e9ecf57bd46521eU, 0xbd80f1a03eb49a03U, 0x3e3d6431bcfefffbU,
  0x3e91f458be1b55edU, 0xbc00b6d7bef0a934U, 0xbf6a6a603e5f797dU, 0xbf959579be9812abU,
  0x3d4652ed3dd81c23U, 0x3eace1d03e668628U, 0xbe6b941c3d19aedfU, 0xbdd5aa343e382e9cU,
  0x3f0d0a81be9d2935U, 0xbe15dbbb3e67d260U, 0x3e89c0cb3b3b5e65U, 0x3ce6ce1bbed48591U,
  0xbdca5f2a3dd5fa3fU, 0xbe4bc4273f04f089U, 0x3eb059963ea63032U, 0x3ee0f85a3e3289b4U,
  0x3c9bed343e011e35U, 0x3edd21a63e8e586bU, 0xbd9df79abd70d0adU, 0x3e3f3e573e9660c0U,
  0xbe5010163d7d84b1U, 0xbe2e10cd3d65a85dU, 0xbd08604a3eedf84fU, 0x3e34c1f53d7a7d98U,
  0x3eb4bea83e8052a5U, 0x3e22d98c3ec7ef69U, 0x3ea22ac03e47fd95U, 0x3eba1fd1bdfeb4a4U,
  0x3db43c613ec62ccbU, 0xbd9cd014be828a12U, 0xbdc5ab653d225767U, 0xbdda3d783e813ae9U,
  0xbcea25283cd0f96cU, 0x3e904f053e76ea3dU, 0xbe164ba23e511f42U, 0x3ea4a3493e8c5324U,
  0x3e9d28503eaa1e4bU, 0x3e6a22eb3dd30e43U, 0x3e0098673de26751U, 0xbd9984f3be38c22dU,
  0xbe25a756bd2932b4U, 0xbd797f503e103e08U, 0x3d24c888be13a262U, 0x3ddd5b80be3945d4U,
  0x3d9d0eccbe1f1282U, 0xbe64751dbe37c358U, 0x3ca1fc00bbea1f20U, 0xbe2992d4bd999d4cU,
  0xbe62c1fa3df7c208U, 0xbe0783063ddf0ce0U, 0x3d5dd308be026526U, 0xbd16812c3dd168e4U,
  0xbe5485b43ddac154U, 0xbe3a909e3e329d34U, 0x3e04229ebde0eb84U, 0xbe4c8008bda5fa28U,
  0x3e715ce23d460e88U, 0xbddefe283e3c39a0U, 0x3d533968bc813468U, 0x3e2160e23e115cf4U,
  0xbdd55066bde4fe02U, 0xbe1c1bdc3e13f5beU, 0xbe322671bba22960U, 0x3cebc6a0be46a6d2U,
  0x3c0683e0bc4ec080U, 0xbc6c0a60bd1b2ac0U, 0xbe58e58a3e2c81f4U, 0x3e3658dabde4d464U,
  0xbe0713fb3d35a7d8U, 0x3db5ad70be072698U, 0xbe2f54ef3dde4e74U, 0xbdc57bc0bd9d0ec4U,
  0x3ce722403e1e7e3cU, 0x3a3cce003d90e324U, 0xbe6e7bc3be01759aU, 0x3d85e0e8be20e06aU,
  0x3e91b9743ecb567bU, 0xbe04848a3d3bb01bU, 0x3e9620a93e44d292U, 0x3d058944be950bbdU,
  0xbeb38892bd4ca405U, 0xbd8719a1bd988b48U, 0x3ccf94fcbe9e027fU, 0x3c506ccc3e423db1U,
  0xbd1d214dbc8891cfU, 0x3e0163abbe8b9be1U, 0xbe6baaeebe2095c5U, 0x3e38ecbc3d7b76fbU,
  0xbe6579bcbe384053U, 0xbeba0117be1d561fU, 0x3dbfa5a03d383384U, 0xbe145f0ebe805c4fU,
  0xbdc44d6dbd166d2eU, 0x3d52b7d03d4b078eU, 0xbe296806bef1b458U, 0xbe2e2d04bc4fa8eeU,
  0x3d6f87ff3e3b01a8U, 0xbe7b65383d92c5a3U, 0xbe976fc4bde22760U, 0x3e9d7ef5be73831bU,
  0xbe3a12bfbed01bf5U, 0xbebc12f53c181fccU, 0x3e5929cbbdf78364U, 0xbb8bd44d3e175a26U,
  0xbcc29b1cbf1a3dc3U, 0x3e52b1793e7340ceU, 0x3dfc21a9bd512881U, 0x3e470dc8beaaea4bU,
  0x3e36fc1f3e4a975eU, 0x3e9d8a98bd8e96edU, 0xbecf7f9cbde6ec4cU, 0xbf1831693dff59aeU,
  0x3d1a7105be4df611U, 0x3c146251bda17ab1U, 0xbe5719f23dfce764U, 0xbdd5ea3fbd77af56U,
  0xbe22949ebce12a7eU, 0x3e91df7f3e3696f5U, 0x3d8a8e2e3dce63e9U, 0x3ef03c403ece4131U,
  0x3edc3dbb3e9a63fdU, 0x3e41ca70bd73f389U, 0x3e230d16bec0cc42U, 0xbe0161efbe03307eU,
  0xbe05c4633e0bb611U, 0xbe4515d5bd5e0a5bU, 0xbe80ddf13ca20beaU, 0x3e4393f3be714c6cU,
  0xbea474cf3e43726dU, 0xbdc70a133e44ba7eU, 0x3e1f95ccbe6c4f3dU, 0xbe0ca7cfbdbc8375U,
  0x3d7c7c6b397bfe1aU, 0xbd788524bd7fcbb4U, 0xbe481a0fbd87ee59U, 0x3d8a8ab4bc04dd4aU,
  0x3e23d2513cda983fU, 0xbdc750ba3e00b02bU, 0xbdf1319abe10e951U, 0x3d7ebde9bd9ed2a6U,
  0xbe32c3dfbea9b0acU, 0xba97bfb5bdf0e862U, 0xbd091f123d7957f7U, 0x3d2860323e1e538cU,
  0x3e1102d33e7745a0U, 0x3d48fc03be97eb6cU, 0xbefe469fbdbcd09cU, 0xbf255458bd7c38bfU,
  0x3cd81acf3ec36ab1U, 0x3e310e87bc098aecU, 0x3db335103ec551baU, 0x3e28f3d73e11982fU,
  0xbdc592353e37c7e8U, 0xbdfb7f34bdeb4ca8U, 0x3e9203ffbe522e23U, 0x3e6912b2399ff214U,
  0xbe9fd7e5bd4840a5U, 0xbd221f91bebd2f79U, 0xbdd2493cbd816823U, 0xbdd47844bd060a8bU,
  0x3e495c84bd6e3957U, 0x3dad7b9b3ea0282cU, 0x3e44733cbde4780dU, 0x3c0da1f93ec13450U,
  0x3c1c13ea3e11be0cU, 0x3c65dd613e104193U, 0x3d68d083bdfb905dU, 0xbe9bf5c63c466fb3U,
  0x3dabeed2bd3ca897U, 0x3e2dbfa13e21a828U, 0x3e36af41bdbc9196U, 0x3df4c45f3e437fefU,
  0x3df43a013e1c058aU, 0x3e021f6abd3de5efU, 0xbe30714dbde415c7U, 0x3e4ae27e3e96bf78U,
  0xbe58c526bdc63a94U, 0x3e8901b5be4791b8U, 0xbe355bccbcd2be49U, 0xbdbf0bfebdf508e4U,
  0x3d995fabbe091a1aU, 0xbd920cc23df7041bU, 0x3e8647a73e45a49fU, 0x3df60b9c3e714405U,
  0xbd82a8a5be4e2d57U, 0xbe8e8d68be1532abU, 0x3e21d7a43e462955U, 0x3d33d71cbe208ef2U,
  0xbe209b99be152eb4U, 0x3e3e49ebbe7ebb7cU, 0x3bb8037bbe0d5cd2U, 0xbe7de34cbda79609U,
  0x3d530739bdac7affU, 0x3d2c42823de350f1U, 0xbd7f36483e3da75aU, 0xbd33c1403a9bf703U,
  0x3e13d32cbe239f49U, 0xbe09e3e6bd82b761U, 0xbe28222bbe286491U, 0xbc5db707bd3bf090U,
  0x3e48f1943c94219dU, 0x3e2de3bf3e0304aaU, 0xbd87e60b3e0b9f38U, 0xbc7882e1bde556ccU,
  0x3d1ea3e0bd13ece8U, 0x3e237c693d509027U, 0xbe394d49be243ea1U, 0xbde7f734bdd5ac85U,
  0xbdedc7d7bdd2f486U, 0xbe75d5f03d53208cU, 0x3b57db02be5d0425U, 0xbde00ba33e07491dU,
  0xbe0782f4bd36f609U, 0xbde832dabc971303U, 0x3ddf10433dfb3e59U, 0x3dbcdf563e103339U,
  0xbd92a74ebe6b9938U, 0x3c35bff7be338dccU, 0xbc3534b03c804e51U, 0xbc6840a7be18d55eU,
  0x3e0eb2b53ec3b83dU, 0x3e3b763a3d5b5a92U, 0x3defc3e23e450f4eU, 0x3d8f95103ebe54ceU,
  0x3d2327ca3e04604dU, 0x3ecb20c13dc45f29U, 0x3c48a8ae3c561f61U, 0x3c41e9a23dbe27c7U,
  0xbdbdddefbe6d139eU, 0x3c90e5f93deec1b2U, 0x3daefab5be85b6abU, 0xbd4c00fd3d6245efU,
  0xbc915fd9bd951b3aU, 0x3e5a40943e1764b5U, 0x3e6c8237be2385faU, 0x3dbc0af43e373246U,
  0x3ec8e189be3f7cd4U, 0xbcb17b8ebe5d9224U, 0x3e1ca9d6bdc9603cU, 0xbde0083b3e1c9bbbU,
  0xbe4c83bdbdcb7735U, 0x3db0f35d3e356df3U, 0x3e56d5b4be516df6U, 0x3e12ba793e2496fbU,
  0x3dee696cbd87d5feU, 0x3f040cebbe04d037U, 0xbd19d37c3def967fU, 0xbe1e05ee3ea10bb0U,
  0x3e8ef913bda70c96U, 0x3d55b7b0be59d4a0U, 0x3d8ebdea3c22eb4bU, 0x3e4717083ea7b29cU,
  0xbd4cf2553d692f90U, 0xbe7087d83ebe3a91U, 0x3f80b5dabe2dba6cU, 0x3dd786533e6386d2U,
  0x3dfe2cc43dd396ccU, 0xbe0b3fdc3db40020U, 0xbdd413b43df18018U, 0xbe187fcc3cf15870U,
  0xbda720003e23fc2cU, 0xbdbfa0c63db5a4d4U, 0xbd989b1e3e5ae94eU, 0x3e702964bd631d1cU,
  0x3af8a300be2eb9e4U, 0xbdbe27e2be195589U, 0x3dfd5d7cbe0cb096U, 0xbd5c0e44be40825cU,
  0xbe219bf5be136c06U, 0x3bf770e03d8694d0U, 0xbe6f06fcbdb6b88aU, 0x3d2b80303de61108U,
  0xbda2b1563e1fc0f2U, 0x3de172c43e223eceU, 0xbe0bf9f7be62520fU, 0x3d44e3a03be9f280U,
  0xbe4c32eebd7fa794U, 0xbdbd308abc0def90U, 0x3cc5b3e0bc893b40U, 0x3e42a85ebdc59a70U,
  0xbe200e4e3db8846cU, 0xbe4fe8f33dbe68bcU, 0xbdd285d2be17de89U, 0xbe2f2e943ddafd98U,
  0xbe6985e5be5c0065U, 0xbe59b631bdccc37eU, 0xbe522063be04ac06U, 0x3d49da103dd16494U,
  0xbda82f0ebd14cdb4U, 0x3de070903e357be4U, 0xbd44d5c0bdec7e32U, 0xbd6ac4203e6b29dcU,
  0xbda8535abe08cdb8U, 0x3e2d47b53e857b06U, 0x3e258f223df96933U, 0x3e766bac3e2102b1U,
  0x3ef2440ebdd4d778U, 0x3b4916223d957025U, 0x3de80015bcb6f3a4U, 0xbdf7e930be8065a6U,
  0x3e3614833e168312U, 0x3d6ee1a63ec49707U, 0xbd6864dcbe21a709U, 0xba83a9be3d3c3c09U,
  0x3c9152cb3cd51381U, 0x3ea81105beb144aaU, 0xbe274e77bca9f4ceU, 0x3e56776b3e461659U,
  0x3e532e1abd601a7bU, 0xbd8711b73de27fbeU, 0xbe2bd06b3f16f767U, 0x3d990da03e333550U,
  0x3c523cda3de498d4U, 0xbe12227b3e557336U, 0x3e49c1553d037cd8U, 0xbd7777413de6475dU,
  0x3e07ec233e8d6568U, 0x3efc554cbe9887a3U, 0xbe042f143c0d4f89U, 0xbe8a04b6bd40ba81U,
  0x3cc8325d3f0802fbU, 0x3e4d557bbd88f0d7U, 0xbe4a0fb5bd93be84U, 0x3e3ce800bdd20a73U,
  0xbe06611bbc8ff860U, 0x3e3a11153e15effaU, 0x3efc1944bebc2a68U, 0x3dd0a9d23eaaee04U,
  0xbde8d9213d91612dU, 0xbe4159a1bcf815b2U, 0xbe286b4bbea2d8afU, 0xbda8ff6a3deb44a1U,
  0xbe28ab533d3f1b08U, 0x3d9ea8a33daa532bU, 0xbdd16fd3be404332U, 0x3c936d34be5b826fU,
  0x3ed96513bd3b2fd4U, 0xbe525ce2be8e6dbbU, 0xbd924b6b3dcee226U, 0xbe20de413bc69f86U,
  0xbde045d8bc6e726bU, 0xbcba94b13eb42ccaU, 0x3e640cf5be0d730bU, 0x3e45a9573dc940b8U,
  0xbe93dbb1bdf0ce72U, 0x3e6b941a3c998f44U, 0xbe01731e3d76f46fU, 0x3eadc332bd1363b1U,
  0xbe8b38a7bd928003U, 0xbe210c273e471b16U, 0x3c0bcf24bd931dd5U, 0xbdebbded3e016d1aU,
  0x3e3cd0853d5b66fbU, 0xbe018c5e3ec31f6cU, 0x3f37da7d3e713c6dU, 0x3eccdf023e6164ffU,
  0x3e0fd4e2bec23b50U, 0x3dc25cd13e555b8bU, 0xbdc69b5c3ed1e258U, 0x3e9a6f75bda6705dU,
  0xbe0307a73d66efd3U, 0x3d098b323e6aecbcU, 0xbec4bd473f2327bcU, 0xbebbf83e3dfa4911U,
  0x3e5bf66ebe0a028dU, 0xbe8cd084bcd468fdU, 0xbdd6218d3e17990aU, 0x3e6040a2bede27e6U,
  0xbecef6df3e8e3ac5U, 0x3d34e73f3e6dc2beU, 0xbe0e8559be666740U, 0xbe94f79abb8a8c8eU,
  0xbe6885453d12c3adU, 0xbe2ce6b2be44e5e2U, 0xbe5216f63d322dbdU, 0x3e188ffdbde40b4aU,
  0xbd89f7a4bbd8d997U, 0xbe8098ba3da72ec1U, 0xbd8554d9be4955bbU, 0x3da8d1b9beaef528U,
  0xbe7f0f533e8c9873U, 0x3de8ad413dc822beU, 0x3e071000be8fc2f3U, 0xbe167a51bd00900dU,
  0x3bc23505bcdcdc14U, 0xbe308647bd85e685U, 0xbd5d02d93d1d57deU, 0x3da38b60bbff254cU,
  0x3e3cb289bec8c904U, 0xbeb5c2e63eef151eU, 0x3e0f2a523e4b00cfU, 0x3dcb015dbe8eeb98U,
  0xbe2b4b46bf1c097eU, 0xbdfc61d13e8d66cdU, 0xbd8967d53cfd2d5fU, 0xbe25f1803ce3c2d8U,
  0x3e43692b3e696f58U, 0xbde2256bbecb7a03U, 0xbf0816533f0b4a0bU, 0xbe3b3800be2f8af9U,
  0x3e8729a73ed42581U, 0x3eb7d052be00f90dU, 0x3e9e5be73e0d974cU, 0x3ead020bbcbf630cU,
  0xbca28b513e7f5dd6U, 0x3dedcbad3b96f241U, 0xbd2d9774be3a2f71U, 0xbd0c71a8bc8761f0U,
  0x3e8e805bbd265915U, 0xbe8af5f3beec8407U, 0xbe4a8e59bebae1f3U, 0x3e4e2299bddfb3f5U,
  0x3e4d4c2d3e18a298U, 0xbe517f553eccbf53U, 0x3e71a4f43ded9ab7U, 0xbdeee594bdbaa021U,
  0x3e58d9a33e42a85eU, 0xbc59e41abe66da0eU, 0xbe5a9b1dbefbad51U, 0x3c8d4b9bbed0528bU,
  0x3db61025bdc710c0U, 0x3d1d1928bdbf1e90U, 0xbe58126d3e896ae8U, 0xbbafe0bf3d200cc6U,
  0xbe076ba73e611e2eU, 0xbcefab48beb2a100U, 0xbed9bbaebe5f1519U, 0x3ba24c2b3e462054U,
  0xbc8b6452bdbbdf87U, 0x3d895a4b3c848ed2U, 0x3de685d5be8f5c7dU, 0xbe104a3ebde6f950U,
  0x3debe2413e6c949aU, 0xbe3e2950be5e953bU, 0x3f09c94fbe86bd2aU, 0x3ddfff653d89cde3U,
  0x3dbee94fbe8205cbU, 0xbc819c95be8ec3a9U, 0xbc1c4ae9bdcc3850U, 0x3dd7a7c8be865882U,
  0x3c7bf47c3d162d26U, 0xbe401ecf3e3e8a3bU, 0x3dea9d313cc97846U, 0xbcddd825be8e0ba0U,
  0xbeec53aa3e21ab99U, 0xbeb7f8c3be959de0U, 0xbe82e8f23c31b146U, 0x3d87df803e447e2cU,
  0x3c49eecebeae998cU, 0xbebb5c5e3e32c01eU, 0xbe3839a53e6ca85cU, 0xbe345de1bea30712U,
  0xbdd0c3b8becc5c31U, 0xbe926e233e63a507U, 0x3d2892cfbd90e980U, 0xbe1ed70d3e223d70U,
  0xbdf1f397bdf35c83U, 0x3e70ae86be2d898fU, 0xbea2d1593eabd221U, 0xbd991f983e59e640U,
  0x3ce8d82fbea9bd04U, 0x3e78d139bf444b31U, 0xbee8e15abca0ec54U, 0xbe679293be84d8f0U,
  0xbe24742abdcc6568U, 0x3d8e7e8cbe338334U, 0xbdac87fbbe95a14eU, 0xbf2b06253e002a73U,
  0x3d001e1ebe1ea6b3U, 0x3e254ebbbed15a3dU, 0x3ed9fcfcbf2e7441U, 0xbd7174d8bd14b2fdU,
  0x3e2bae313e60a150U, 0xbe8e47aabe763fe0U, 0x3d933bc53e8c5b5cU, 0x3d9cfb38bebef74fU,
  0xbeebe7f43e8c115eU, 0x3e2470803d93b5f6U, 0x3e38fef8be2f0c7fU, 0x3dac94083e923ebfU,
  0x3eadf6583d130f78U, 0xbdc6a5e9bf1e2685U, 0xbed132e6bea6f37dU, 0xbdb6e6b0bd6e1c2bU,
  0x3e7ab63cbec1d207U, 0xbe5c2cfbbe064301U, 0x3d2611fcbd85361aU, 0xbe0597cd3d56377eU,
  0x3e2e2e203e0ce845U, 0xbd0f5194be2a4916U, 0xbd2ad984bedf12acU, 0xbeeff9fd3e46696bU,
  0xbe1db14b399216dcU, 0xbd7a720ebde416dbU, 0xbed27e53bea59fb6U, 0xbe48277abd96c10dU,
  0x3cc22c1ebe9c2443U, 0xbec0b95fbebde380U, 0xbe897355bd9c670bU, 0x3e3b0b5e3cb06ec7U,
  0xbd28bea83ea287a2U, 0x3e1a58ed3e13116eU, 0xbc963a31bf00d2b3U, 0xbedf9204bd6812aeU,
  0xbe44a11e3dd2a325U, 0x3cf857d7be4414adU, 0x3da88fb3bf29e266U, 0xbde9242c3e8c6cb6U,
  0x3e5c59003d998150U, 0x3dfa6d44bc49f200U, 0x3d0b2c903a9cb200U, 0xbe146c1e3cadcf80U,
  0x3e52a6283e64d57eU, 0xbc622c40bd72f448U, 0xbe2c19203ce836c0U, 0xbe14446cbe3a19b6U,
  0xbcb55a483e32fc20U, 0xbd95becc3db7b5b4U, 0x3da01120be27fdb7U, 0x3e21d96e3c0f6a90U,
  0x3d72c5d0bc8fe3a8U, 0xbe28b4e0be321ee0U, 0x3d7209a8be1698a8U, 0xbe298a643dd7aebcU,
  0x3ce341903bebc220U, 0x3e55662a3de12e0cU, 0xbd90461ebe433cf1U, 0x3e2f3e403d84eb30U,
  0xbe52a4a43e2cbddeU, 0xbe1eb20ebd6bc0dcU, 0xbe65cb353c161d10U, 0x3e3c1caebda097d8U,
  0xbe2f080ebdfcfe01U, 0xbdc72fe2bdfbaa41U, 0xbe1d86893e1be796U, 0xbe6998e7bc77fa10U,
  0xbe672d40bdeb528eU, 0xbe5552d8be01acddU, 0xbd072794be2fd20bU, 0x3e21de443d658780U,
  0x3e32dc5cbe06de2eU, 0x3c4bada03e0ec0b6U, 0xbe4eb0ca3c5539a0U, 0x3e568c0ebe0b7f1fU,
  0xbc728776U, 0xbc9f1f9bbe46ac5fU, 0xbaa77eb1bd5d6cd6U, 0x3e1697e400000000U,
  0x3cf7ba343cdb22ccU, 0xbc94b635bae9ed15U, 0xbd9b99e93d1d4b60U, 0xbcc3db16be0bbf96U,
  0xbe22b1af3d6552d7U, 0x3e10cdfc00000000U, 0x3cde83fd3e44a8b6U, 0xbe2ebb7abcadbe36U,
  0xbd22a19e00000000U, 0x3cc403e1bbdffe9cU, 0x3d8b42493d218335U, 0x3ea5dc89U,
  0x3e4ffe32bc427720U, 0xbe096531be65ecf6U, 0xbdd8094cbeb360e5U, 0x3ddd9a08bdc02094U,
  0x3de4912cbe9a67c4U, 0xbdd0a4a4bdfb1bc8U, 0xbdcc67e4be7284baU, 0xbc035140bd7ffbe8U,
  0xbdce08a4be945fd2U, 0x3dca8814bb545080U, 0x3e863eb5bbbf23c0U, 0xbe4ef821be1b625cU,
  0xbdca7fdcbe1245ecU, 0xbe87728a3e37c936U, 0xbe8c9c5dbe5ec917U, 0x3e7fad5ebe9752d0U,
  0x3e0d386839b2ac00U, 0x3e70653e3e8651e3U, 0x3e041243beb33ddcU, 0x3eac319dbe290947U,
  0x3e8675bc3e0b57e7U, 0xbe946ed6be8fbb1cU, 0xbe7050033da70c90U, 0x3e61757dbe793aaeU,
  0xbd8d1efcbe8dbc7dU, 0x3df813f43e2f360eU, 0xbe6781cabd47a296U, 0xbdb27534bde8f340U,
  0xbe73fe0abe9255e3U, 0x3e143d5bbea4fcb9U, 0xbcfac0d33caae670U, 0xbea685abbe26d282U,
  0xbcc9f7d0be1378c8U, 0x3d95c7423dcb084cU, 0xbf2660c23de1e521U, 0x3bf454b03e01bedcU,
  0xbe087f993f418d15U, 0x3e405bfc3d8bb8b3U, 0xbfa26c3e3e3dc956U, 0xbf6c51cd3da3512cU,
  0x3e9b8d3cbe8babffU, 0xbf1bae93be813505U, 0x3e1a9edf3e138c68U, 0x3e9b60d7bca350afU,
  0x3ef4ce46be6d102bU, 0xbeb9c2643ec0edd8U, 0x3eef179abf0b77a1U, 0x3ea57aebbf175f75U,
  0x3d8e1f6cbe361ce2U, 0x3dbf8d413e131a4aU, 0xbd2eeaffbea7c028U, 0x3e44871a3e39abf2U,
  0xbc00c330be81b18dU, 0x3e9b6881bef13c2aU, 0x3e6e1c2dbd559068U, 0x3ed53af13e46d124U,
  0xbdce03e43e74d2e4U, 0x3dc7d491be17888aU, 0xbc35ceac3e2509ecU, 0xbea11532bebe0c14U,
  0xbe0f3a483de853acU, 0x3ec7f4903e2b343eU, 0x3f3d2fb43ede5f97U, 0xbe4a6c523e60aa62U,
  0xbe70f8dbbe83ce27U, 0x3e1e6d453e11901cU, 0x3ecd4de0be02d313U, 0x3de7d0ec3e8b89d7U,
  0xbe5b1255bee26bdaU, 0xbe8d14a03f0d642bU, 0x3f8742c63f04e44bU, 0x3f41a7783e7f3f18U,
  0x3e1634593e329299U, 0x3f28e5543eaaee7fU, 0xbe004243be8b9af8U, 0x3dd6f3f9be31b34dU,
  0xbe997b513e47b0e2U, 0x3d483b073edf97d6U, 0xbe91799c3e2fa56fU, 0xbe242322bcb0da26U,
  0x3d2480003e95bed1U, 0xbe4e58983dccba3aU, 0xbe42fca53eac458dU, 0xbee17de93e14c26eU,
  0xbe89e58f3dd91040U, 0x3db5700a3e696354U, 0xbdf24a35bd8c5c68U, 0xbf3f4e063e96afa2U,
  0x3e56de62bf4700d1U, 0xbf02515c3eb08965U, 0x3e9793dabe32d007U, 0x3ec237993e2a31e3U,
  0x3e90fccfbda32f40U, 0xbebff920bec1c371U, 0x3da65fbe3e4c50dcU, 0xbeb238d9bc207e31U,
  0xbe8954a73e8014f1U, 0x3e92c0d73b86ec7dU, 0x3dd82d7dbe8564bfU, 0xbe4cf742bdf8c1d0U,
  0x3dc1bc1abe8eaa8eU, 0xbe4035793db7b98dU, 0xbe8bd9a8bdcd1930U, 0x3dc290ddbebbf4e9U,
  0x3da37ceebd374667U, 0x3c6440dc3eabb91bU, 0xbd9b03eb3dc3d0b6U, 0x3e69fb9d3e41c8d6U,
  0xbe89f0cd3e5704beU, 0xbecd41ed3e70cce8U, 0xbe5fa0763d9fcf7bU, 0x3eb3e01bbed52c07U,
  0x3e9bd241bd121d59U, 0xbe29698e3d979b56U, 0xbd1fc013beadaa2eU, 0xbe8ddaf83d9aa9a4U,
  0x3d5b5843be2d05a1U, 0x3d7a8a083e280e31U, 0x3db1e14c3e06c667U, 0xbeac6e87bd10cd5aU,
  0xbe8602dcbbbd7cdeU, 0x3de0af55be9676b4U, 0x3d8311b7bd988af6U, 0x3e842af73da73834U,
  0x3e1a85f6bea0ec6aU, 0x3e33621f3d4704c1U, 0x3b999988be2e5a2aU, 0xbea892cebed80a8cU,
  0xbbac8680beaec767U, 0xbe933d20bebb2675U, 0x3dae45833eb1e54cU, 0x3ef9e4093e669bb6U,
  0x3e8f93423b3ae837U, 0x3e80f4a03e92d54aU, 0xbf1c26613e943069U, 0x3d1985093e4f550cU,
  0x3e94949e3ef70ff5U, 0xbe768e00bdf6dcf6U, 0xbe9826593ea9e64dU, 0xbe0392783ea66614U,
  0x3e99d5b43e02aeaeU, 0xbe10bbfd3f0c5429U, 0x3e06a17abd7963c1U, 0x3e170f72bec0c665U,
  0xbeaf83bbbd9bc431U, 0xbcae8c21bdc417a7U, 0x3c5a81c4bd7c4a49U, 0xbdd9ca7d3d155a98U,
  0x3ec88016be24317fU, 0xbe5eaa073f1ce96dU, 0x3e95a92bbe9e7fa3U, 0x3f25eff7becb2ebcU,
  0xbe6185e6be37a6b0U, 0xbeede5583e1724b6U, 0x3e38cb393e2bac82U, 0x3e9778b6bc9b6298U,
  0x3d529fb03e6d7c0aU, 0x3e2ad3443ddb63c5U, 0x3dd82b7b3f163badU, 0xbda47fc83d1df309U,
  0xbe07df77bcbd25a0U, 0x3e6ab806bf2b1cc2U, 0x3d2698a63e9adab0U, 0x3cb0d5cebea33a8aU,
  0xbeb54a393ea3a0a3U, 0xbe9bd18d3d87b8b2U, 0x3eadfe1ebd0c26c3U, 0x3d5688a5beacd07bU,
  0xbda0f462be32e905U, 0x3eac6afd3e9a5279U, 0x3e6b27363ec9e808U, 0xbd849f6bbde442dcU,
  0xbd96c65cbe0fada9U, 0xbd8a6d1bbf179e32U, 0x3f15b6603e9a067cU, 0x3e9fa62f3f3040cfU,
  0xbe656ba63eb3525dU, 0x3ea628723ea5fa19U, 0xbe9d84233e6b58faU, 0x3bb548303e979e57U,
  0xbe9b7b8c3f47e68aU, 0xbdcc820e3e2f1440U, 0x3f0b27f2be43cd4fU, 0x3f1204373e210dc4U,
  0x3e6e88a9be8c18c2U, 0xbf12fe7fbe6d1ce6U, 0xbecf806fbde6308cU, 0xbb4a7fe23c206f54U,
  0xbd8ccd90bd518170U, 0x3e5238e9bc32f84cU, 0x3f046ac43c4db175U, 0x3e9d69173ab30d34U,
  0x3e13ab52be464154U, 0xbdf45bf83db95129U, 0xbcba13f1bdebb5abU, 0x3da0c204be15634cU,
  0x3e11205e3ea1c674U, 0xbe32af513c6cfbf4U, 0xbe4a7742be97accaU, 0x3e8e37c5beb5ba60U,
  0xbc961a66bd9345c4U, 0xbe6a62ea3eac47c1U, 0xbdb44956bdecd8d4U, 0x3daf75b33d0b2b9dU,
  0xbe05d8253e7a62aeU, 0xbea64d7a3e4a575aU, 0x3e86b4b8be2bf63cU, 0xbe5e8841be9d13a6U,
  0x3d443360bd8bf830U, 0x3e58a58b3e30d165U, 0xbe2a0993bdd0322bU, 0xbe9306a33e4f27feU,
  0xbe92f654be8fa064U, 0xbe827d593d8185feU, 0xbd099d4b3dee1ee3U, 0x3f7a3397b93a11beU,
  0xbd899e613c9daeedU, 0x3f1cd7cbbe807682U, 0xbe4b4fe03ee3284aU, 0xbe3363863ce5f440U,
  0xbde15217be7e83b6U, 0x3e339ff23ea76579U, 0x3e7ecba5be34b334U, 0xbd7c79883f04fba5U,
  0xbe0748963e9042a2U, 0xbe9cc25a3f05ecc7U, 0xbec4ee543e0390f4U, 0xbe8207683e0917a2U,
  0x3e220c2fbea67010U, 0x3e569417be06eeddU, 0xbf29a5f73ef7dc82U, 0xbf4555193e1fe166U,
  0x3e9b6e1c3e42ccd6U, 0xbd7971de3c118fe0U, 0xbe0f453f3de3a3c1U, 0xbd065cf53e8a3a3bU,
  0xbe3983f23ea2ad21U, 0x3eb743e23e745179U, 0xbf09da50bed67bacU, 0x3e62dcbabf2c7e68U,
  0xbe70ae9cbc201c80U, 0x3e4beab53eef930fU, 0x3f3435a1be7dd869U, 0xbddbe6febe354f16U,
  0x3e901a79bf008537U, 0xbe80dc293f14790cU, 0x3f5d97b33e842006U, 0x3ee176acbe91224aU,
  0xbdb690c53ee4ef77U, 0x3f0eff8dbe53a72fU, 0x3ea73d4e3eb6fc5aU, 0xbe56dc3f3e84c1eaU,
  0xbe9e30db3e6f9c52U, 0x3ea6b1103e97d867U, 0xbf478f543f27cd92U, 0xbe9d91203e86cefdU,
  0x3c2badb300000000U, 0x3e3e5cd1bd9be73eU, 0xbd825917bcbcc103U, 0xbdb669dcbd17c7bbU,
  0xbdec66d33deaa530U, 0xbe311edd3eef6b46U, 0x3e4fa9d4bbfda4bdU, 0x3d38200dbd9a1a9dU,
  0x3ee1dda63ea19220U, 0x3f88b0fabea52704U, 0xbd18ff17bf93cca5U, 0xbeced3bdbeb80c1aU,
  0xbc64a8e0be2c8861U, 0xbdac596d3f0c8851U, 0x3f80a4ca3e727649U, 0x3eb2e243bec1fef0U,
  0x3ee6cd8dbed9bd40U, 0x3e884a38be37bc65U, 0xbf1bf67a3eec1c69U, 0xbeb6742ebee90ecdU,
  0x3ed6d3903e2d9ec1U, 0x3ef8da76be5af516U, 0x3f0d99543edba813U, 0x3f2baa0abf38a63fU,
  0x3df97f3dbe4c2ec0U, 0xbfa462503c30381bU, 0x3e99cd783ee03bc1U, 0x3e40e6023ee5278cU,
  0x3f3bba53beed1af0U, 0x3e99aa7dbf2f74fdU, 0xbd1bf0f6be76cb3aU, 0x3f1e73163ec47ffeU,
  0xbd9259cc3d024de0U, 0xbf4f9f223e8572bdU, 0xbe43dd1f3e98b77aU, 0xbf01b241be571effU,
  0xbec293d53ef36ef0U, 0xbe08370abed37e6bU, 0xbf4eb8debeefdb70U, 0xbdbcfff73e68f392U,
  0xbdad79d5beed7f6cU, 0x3f1f3caf3f36751eU, 0xbda7c999bedb1f96U, 0xbe684d36bf0c1af2U,
  0xbf20f76a3e58bc66U, 0x3efa1ce3bf6348c8U, 0x3e7ba22abea434c0U, 0xbf54ad4d3ec075ceU,
  0x3ea5f98ebe896747U, 0xbea81df03f034890U, 0x3f389687be74980fU, 0xbebfa1c8bed06eceU,
  0x3ef25426bca6a4a3U, 0x3efb9a63bde6e117U, 0xbf863d8f3e5ee137U, 0xbf93d2ddbec58821U,
  0xbd9201333ee781b0U, 0x3ddf568abe1c05b7U, 0xbd1400c6bdb4f2cbU, 0xbdd2388a3d33f0c2U,
  0xbd47c678bcad15e8U, 0x3c47c152bd506850U, 0xbda3b7a5bc21ac92U, 0xbe29ed2fbc73a914U,
  0xbd5f5f90be091c84U, 0xbc0bf2e2bde0aec7U, 0xbd7b182fbe2e3070U, 0xbe41ba173dd27b1fU,
  0x3d1a04b53d19fefcU, 0x3e06cd043d481a17U, 0x3e0aac3ebe519991U, 0xbe680a203db90840U,
  0x3c1cbc61be12d306U, 0x3e496f1e3e72fe04U, 0xbeb0dc02bead4882U, 0x3e49bd67bc8ca680U,
  0xbe98386f3e91c7edU, 0x3ea09023bdf642b3U, 0xbdd879fe3ea04031U, 0x3d16bde3be9ab6fbU,
  0x3eb3caee3d191322U, 0x3d45e69c3e027cd6U, 0x3e882cdfbd59c44fU, 0x3e0b2fb63e4248d7U,
  0x3e4dc2e03e318277U, 0x3e051e5c3dd4503cU, 0x3e004325bd4016caU, 0x3f06fd1c3e160ff6U,
  0xbe5d6ead3ecd838bU, 0x3ea6a5ed3f0195c6U, 0x3ea0c4643ec2d1f9U, 0x3ef3f99bbe85cd56U,
  0x3e5c8acd3ebcf237U, 0x3e33fbe73e7dee65U, 0x3e6712853eca4626U, 0x3ed021673ecc4395U,
  0x3e5b46f43d40f8e1U, 0x3d32b7cd3e6e29a3U, 0x3d96a1dcbdc8f391U, 0x3e71b29d3eadeb06U,
  0xbe46f854bce0c7c3U, 0x3ebd28bebe4bcb05U, 0xbe59c7143d830a2dU, 0xbc23e337bca4423aU,
  0x3e57833c3e940b39U, 0xbe4520a83d7a6019U, 0x3e5e96063de94a5dU, 0xbe1f78a1bd3d6055U,
  0x3e67df85bd8862d2U, 0x3e29a2083d8b1272U, 0x3ebbf9ec3ea9cb9cU, 0xbdd8bc25bd175581U,
  0x3e84fb3d3e8a6a39U, 0x3bcfdc003ddc69feU, 0x3d110e3cbddd2d94U, 0x3de4586fbcb94c69U,
  0xbe90b0bb3ba0108fU, 0xbe0d9d7bbdaab1deU, 0x3e0f49433e4b3523U, 0xbe0eacc4be162cb1U,
  0x3e117bebbc16ff8dU, 0xbc104dbcbcfd6140U, 0xbe64b7dbbe7be11aU, 0xbe94ebe2be5008a0U,
  0x3f0290d5bd70da0fU, 0x3dace1b5bde2be8eU, 0x3e1b015dbe4aea53U, 0xbdb939fe3e449892U,
  0x3dede4a73e1043cbU, 0x3eeb4c32bd133371U, 0x3e1bbde2be8ca861U, 0xbe5c23153ebaddfeU,
  0x3e8fc5a03f31c938U, 0xbda4a6ee3e8ff8ecU, 0xbe5306eb3e5fd972U, 0x3f024e253e1aedf5U,
  0x3b84f28e3cbd6dd0U, 0xbda18bea3f219589U, 0x3d01971bbe1235efU, 0x3e372702be05be44U,
  0xbda20feabe07c3daU, 0x3e436dfd3ef6067aU, 0xbe222936bed5cd24U, 0xbe4ed60b3e56856eU,
  0x3f149bae3e75e040U, 0xbe0377f63d13c18bU, 0xbdfaa4773da10e8cU, 0x3e8f003cbe7e0b66U,
  0xbeb0fc6cbdc3f2b2U, 0x3ec1f57dbe360465U, 0x3e8612e83e7b9e53U, 0xbe2f16c83e8b4497U,
  0x3dd0227c3ebbc1cbU, 0xbe0c4a003e1e7908U, 0xbd371aa0be6ba220U, 0x3ecc14d13e98ea3aU,
  0x3daa5ac63ec41536U, 0x3e8749953eee8cd5U, 0x3ee3e4673e064476U, 0x3f19ce6f3e852f6fU,
  0x3e8832493e369c53U, 0xbdcd9bd43f17f2b5U, 0x3e49f60a3e0a77deU, 0x3ea053503ebf58d1U,
  0x3e4c74943e887a04U, 0x3e86fdfb3ef7b9b6U, 0xbd1ae3123e9dc0acU, 0x3ee9f6de3f1ca8d5U,
  0x3f0965ed3e99fa01U, 0x3e1413c7be2487f2U, 0xbe7a36edbd31eb93U, 0x3d69d4303ecb6412U,
  0x3ea322243e85412aU, 0x3e9c9ee33e6e363aU, 0x3e2e6d153b940a2bU, 0xbd50696fbd9c0c04U,
  0xbe18aaeabd6e4013U, 0xbed292483e8830afU, 0xbe08e01ebef92779U, 0x3f3764753e448f96U,
  0xbe7d52653e234d52U, 0xbd7b21ef3e798487U, 0x3ee0d1353e846c1fU, 0x3ecb65993b3718eaU,
  0x3f2c999e3d58a3eaU, 0xbe5d9f61be5caa1aU, 0xbde1d2723ce0750cU, 0xbe1807853f335e93U,
  0x3e881e1dbe977ad9U, 0x3ea08426be1c344cU, 0xbd446799bd08afdcU, 0xbe5ea2643eb84852U,
  0xbcdf0269becfdc2fU,
};


ai_handle g_gesture_cnn_weights_table[1 + 2] = {
  AI_HANDLE_PTR(AI_MAGIC_MARKER),
  AI_HANDLE_PTR(s_gesture_cnn_weights_array_u64),
  AI_HANDLE_PTR(AI_MAGIC_MARKER),
};

