/**
  ******************************************************************************
  * @file    mnist_data_params.c
  * @author  AST Embedded Analytics Research Platform
  * @date    Wed Feb  7 10:18:01 2024
  * @brief   AI Tool Automatic Code Generator for Embedded NN computing
  ******************************************************************************
  * Copyright (c) 2024 STMicroelectronics.
  * All rights reserved.
  *
  * This software is licensed under terms that can be found in the LICENSE file
  * in the root directory of this software component.
  * If no LICENSE file comes with this software, it is provided AS-IS.
  ******************************************************************************
  */

#include "mnist_data_params.h"


/**  Activations Section  ****************************************************/
ai_handle g_mnist_activations_table[1 + 2] = {
  AI_HANDLE_PTR(AI_MAGIC_MARKER),
  AI_HANDLE_PTR(NULL),
  AI_HANDLE_PTR(AI_MAGIC_MARKER),
};




/**  Weights Section  ********************************************************/
AI_ALIGNED(32)
const ai_u64 s_mnist_weights_array_u64[8516] = {
  0x3a66a166be85f151U, 0xbc0f1f21bd1cab00U, 0xbcdb3f623cd3c8e6U, 0xbcb87d6cbda77dacU,
  0xbe2ff8fdbe21a7baU, 0xbe4ba742be102c07U, 0xbda80b51be5a5e58U, 0xbe100f86bebaf8b5U,
  0xbe77f0f3be7cd9c2U, 0xbe888f7ebe5f9021U, 0xbec196c2bea2acbbU, 0xbea688c8be9d4371U,
  0xbecda0cebe11c397U, 0xbd9b28edbe53ede4U, 0xbcd1f977be98b041U, 0x3d58b632bdc78aefU,
  0xbda87f36bdbf8452U, 0xbcdae5363c304c64U, 0x3dec8a37bd45bccfU, 0x3dfea7e03da45713U,
  0x3ba40c953c1e6db4U, 0x3e00d6063d11a11fU, 0xbcb79eb93d39f260U, 0x3e0d03c33b7ff222U,
  0x3bbc0f15bd284f5aU, 0xbdeb6c5fbd97f866U, 0x3e09019bbe0715b2U, 0x3d6ee3af3c9cfa0cU,
  0xbe9cf0923e177842U, 0x3ce3d8f3be539a3aU, 0x3d8d4909bd983a16U, 0xbdc1cbbabc2d7eedU,
  0xbd90e973bca3ef42U, 0x3e49370abd6a843aU, 0xbd854ecebe3abdb1U, 0xbe49e3513e02779bU,
  0xbca117f13d7d0f11U, 0xbd0245fcbd3abb4aU, 0xbdbb1e1f3cf7ff86U, 0xbdcf25a0bd82b2a2U,
  0x3dc42f85be6da4e2U, 0xbe5bc2853e43ceebU, 0x3e340d733c6f1b83U, 0x3da3b391bd11fcd2U,
  0xbc8121983e4330b4U, 0xbc8d0d45bd8240ebU, 0x3d765b6d3ddeae8dU, 0x3cc4c5683de79ef7U,
  0x3de07a66bd96872aU, 0xbe449cf33d349219U, 0xbca85bd7bdb96099U, 0xbdba468ebde13ec4U,
  0xbcb5df24bdbc7b0bU, 0xbae9bf9e3d32b2a9U, 0x3caec9dabe02bc09U, 0xbe30f7003d40aab7U,
  0x3e2cce9ebdfccfb3U, 0x3e4efa96bd5174fdU, 0xbc9d646e3b30766aU, 0x3d7dec5a3e6a7dcfU,
  0x3d2bb688bde0df47U, 0xbe194604be02bf0aU, 0x3d244bb63de5983bU, 0x3e29da873c5ba905U,
  0x3d816a883d9954bcU, 0x3da906e63e44ed0bU, 0x3ea001f9bcd5b35cU, 0x3ccd46e23d9966d9U,
  0x3e0483c23e040cf7U, 0x3ddcbb323e1e4b42U, 0x3cd7dcdf3b61b557U, 0x3e41431b3cdb3109U,
  0xbc6fb4e23db3b55dU, 0xbc5e4811bc56119bU, 0x3de3df76be111507U, 0xbdc1e8303d0c1551U,
  0x3d322a7b3da25fc3U, 0x3d969fca3d616d21U, 0xbe3bab6e3dca5665U, 0xbce51a693bbefa7bU,
  0x3c015098be3f94c1U, 0xbcc4a3f93c5f87e6U, 0x3c0750373d83191aU, 0x3daf4c7dbd00dce7U,
  0x3de5042c3d9a8b00U, 0x3e2022cb3de49827U, 0x3e336b2d3e599beeU, 0x3e0128513e83dad9U,
  0x3d2a8e943dcae10eU, 0x3d05aefcbd950092U, 0xbcb153603dce4a0dU, 0x3dddbe7ebbecae5fU,
  0x3d84b4c2bd60728eU, 0x3d9c404f3de186ceU, 0x3dcf4bb83cf8797cU, 0xbd8af228bdffd3e0U,
  0x3cf89dd2bdbff7ffU, 0xbc6fba48bd017789U, 0x3da760523ded68ceU, 0x3dc3f5debe22eab6U,
  0x3e2180c03d55ff7aU, 0xbd8514e03e297117U, 0x3deef5a4bd0dc873U, 0x3da93d1bbd990d8cU,
  0x3e1225c3bd637555U, 0xbd288b3f3dabbd53U, 0xbc3826433d3caac8U, 0x3e000756be7915b1U,
  0x3d3e8845bd0cae4aU, 0x3dfb615d3dc263f2U, 0xbd48bacabdb7135eU, 0x3c19b66cbdb9c989U,
  0x3d47b404bc24a5a5U, 0x3df3210f3d844f3bU, 0xbcb51fde3da1468eU, 0xbe5da1083dfe4ac8U,
  0xbc2e82bc3e170f6cU, 0x3e96e00abd874836U, 0xbdaf2e1c3da6935fU, 0x3c90d48d3d84a457U,
  0x3e119a263e3aa5abU, 0x3da8d282be6142bdU, 0xbcdd29e73ddc37acU, 0x3de367273dd6fd8eU,
  0xbc222ca0bd158ba5U, 0x3e11fb3c3d2583b0U, 0xbc0ad0d5be262874U, 0x3dc4c3923c3c85c4U,
  0x3e0d91d7bc5e76d8U, 0xbe347c0e3e1d837cU, 0x3e1415b7bc9914c2U, 0x3d984d3f3d989a0eU,
  0x3e40e1843c38c98aU, 0x3de6728b3e092ef0U, 0xbc0c50a23e546900U, 0x3e5e8b19bcd1cf36U,
  0x3d98455dbe2b8f14U, 0xbe2a08213e2942c2U, 0xbd8db8f8bb0db3f1U, 0xbd7a5101bdcb4fceU,
  0xbe5a599d3c871e80U, 0x3e14ddddbc5aa233U, 0xbd8cdacfbe39a25bU, 0xbdcfe6b53e7d9f7dU,
  0x3eaf0e1ebccb0438U, 0x3c8241cfbdf0c78cU, 0xbd96c1193e9d1cfeU, 0x3e84ab70bc8a5201U,
  0x3e21bba3bd0803b3U, 0xbd8d46523e5e3287U, 0x3e6510fc3e276645U, 0x3d7b5b4bbe0b71c9U,
  0x3d76e02a3eb2a74fU, 0x3e2ed8ce3eabdac8U, 0x3daed1653c1ad48bU, 0xbe47361dbd8a73b7U,
  0xbe057d07be5ca381U, 0xbe06f40cbdad430bU, 0xbe1779dd3d039687U, 0xbe2d71dabdacf662U,
  0xbe77502abea54fe9U, 0xbdc76b4d3d1960f7U, 0x3e80f322bdffbbe2U, 0xbd5c1641bbe16815U,
  0x3b9896853ec442c7U, 0x3efda78abd3f9561U, 0x3e2f5411bdf30b81U, 0xbc6504e13ed46386U,
  0x3e9ea9453dcb546fU, 0x3e0caf11bdc66d8cU, 0xbda1e64d3e969677U, 0x3e54b7ef3dcfde66U,
  0x3e7097913e05da15U, 0x3d47d4d33cd6a33bU, 0xbe93fb52bcac8178U, 0xbef3e86cbe014294U,
  0x3b8c66adbe65d567U, 0xbe38dcf5be1c0863U, 0xbe958c16bde4f454U, 0xbda4226ebe005bc1U,
  0xbdced370be946ee5U, 0xbe41bfd0ba57d7c9U, 0xbd942f68bdc446ffU, 0xbde04186bde3d1b3U,
  0xbe35de4d3e55c8e8U, 0x3e2d2146bda8864bU, 0xbd4d8f3dbc97c9b0U, 0xbe52d84ebd588f6bU,
  0xbc7fb4babdf03292U, 0xbda29a0ebe6e1b12U, 0xbbf92645bd924628U, 0xbd96ba31bdb20814U,
  0xbe39fd42bcfcbdfcU, 0xbd783dc53c002892U, 0xbd38aae9bde848c1U, 0xbda689b5bddb6ed7U,
  0x3e46d3a7bd2cc773U, 0x3dbb94e1bdb7f5beU, 0xbd2dc7dc3d62b218U, 0xbd427ccebca2f46fU,
  0x3dde486cbe2a49c8U, 0xbe7b3e15bdc80153U, 0xbced367b3e258e3bU, 0x3e402ad0bece32a4U,
  0xbec111283c59faf8U, 0xbe056e5b3d69860bU, 0xbde6a98cbe1d4d3bU, 0xbe90530fbe9364abU,
  0xbe931c2cbe538b6bU, 0xbe99cd2fbe1c145aU, 0xbdfeb88ebe43218fU, 0xbda3d996bdd5f23bU,
  0x3c3cfa573cd4b059U, 0xbe0f43d73d8643e4U, 0xbe17ad063d84d4deU, 0x3d427569bd0cc1c2U,
  0x3de6f1c73da8f744U, 0x3d5a0ae43db43081U, 0x3e635e69bd5e4e16U, 0xbccb83dc3e05e87dU,
  0x3d1d1abf3df62976U, 0x3e8a868cbd836085U, 0xbe0ace293c68365bU, 0x3dc803d63e7bc713U,
  0x3d2e0e20bd208761U, 0xbd9e6957bd988898U, 0xbc5e7a283c9c7bc2U, 0xbea82d3dbe166d63U,
  0xbdd8381bbe065ce0U, 0x3d4064e5be8e0001U, 0xbdb0ad62be22bb4fU, 0x3ca8fdaf3de106cfU,
  0x3e5899453d251c7dU, 0x3c7cdde73e6884beU, 0x3e06797abd7f6c6cU, 0xbbdc21dcbce9df87U,
  0x3e2e4c813e469d6fU, 0x3e70eab53e5b20bcU, 0x3e75fc403e23bbf8U, 0x3df837643da4ff80U,
  0x3c162da9bda26754U, 0xbc68274e3e8080ceU, 0x3d0c12c5be2151a0U, 0xbd05a3f5bd85bb42U,
  0xbcf99c6e3e68b88cU, 0x3e9b81a6be47b15fU, 0xbe8bd676be3ae0c4U, 0xbe0416e43e3d1261U,
  0x3e5e5604be94eb94U, 0xbdbd3be03d6276faU, 0xbd84723e3e938e95U, 0x3e1435d5bd4b0ed5U,
  0x3d41b5133c9eea6aU, 0x3d4ca67a3c8e03c5U, 0x3cd465533d87df62U, 0x3da100a5bc970e6eU,
  0x3da73725bd4b8969U, 0x3b807a97bd8cea86U, 0x3d34b2703d870fd7U, 0xbd79febbbd0c1242U,
  0xbe49b4b3be386488U, 0xbe994725bcb40685U, 0x3b268095bdaa6758U, 0x3c853e09be0e9f86U,
  0xbe5c7496bdcbd5adU, 0x3e1b911e3e4f8545U, 0x3e922d82be62971aU, 0x3d261e9f3d02f4b3U,
  0x3ddaf2e43e9c44fcU, 0x3e8f707c3d86cbbcU, 0x3e7154103dcda408U, 0x3d55379b3d690d77U,
  0x3e4a454b3e075741U, 0x3e31477a3e3e9d91U, 0xbd5349733e153cc6U, 0x3d16bd2f3a05433dU,
  0x3e041b1c3c99e961U, 0xbb18853e3c4dff82U, 0x3d28f8973e94e408U, 0x3e6acbd53d4f2146U,
  0x3cf0b0eb3c9a7251U, 0xbde9b3d43e6a43e4U, 0x3d044a173d491c3fU, 0xbd1136b3bc99bde0U,
  0xbd9fa9b9bdad21c6U, 0xbe8a70b3bc88bc7bU, 0x3d9749b43d9f6cabU, 0x3d56622ebcfb18eaU,
  0x3d51057f3d070a05U, 0xbdbc43dd3da6cec5U, 0x3dfe9b3cbc65f850U, 0x3d45e07e3ccc65eaU,
  0x3d9d41f13e2d75edU, 0x3c8fc28fbdbd3161U, 0x3e623e4a3d9dc23eU, 0xbccb836fbcaa2baaU,
  0x3e07dd3d3cdb8b0aU, 0x3e0a718a3d97c55dU, 0xbd927c0c3d43de62U, 0xbdbc9e8c3ebaf9e6U,
  0x3e9e6954bdb2d9f6U, 0xbc8bc02ebe054324U, 0xbdc2cb4c3e3aa491U, 0x3d78d4653dd05931U,
  0x3d75a3b1bceaefc6U, 0xbd717853baadc014U, 0xbca4e691bdbf72a3U, 0x3c42c1be3e66bf05U,
  0x3e4e3fdb3caf53e4U, 0x3d687fca3d70d701U, 0x3d9a261a3e8c03d8U, 0x3db01f1f3e0a851bU,
  0x3e362d0a3d45f1ebU, 0x3d8dd3c13e56e144U, 0x3d9afb1d3d949b10U, 0x3da908853d61dd7eU,
  0x3d6584cc3d95417bU, 0xbcd72e443e8341ddU, 0x3d91d3153d9946beU, 0x3cd815c0bd33bd70U,
  0xbdda1c153e027adcU, 0xbd4b5cb33d85b87aU, 0x3c409a94bcd1c340U, 0xbc40b7ca3d99aaf8U,
  0x3d63aafb3cf04befU, 0x3b5f7cf43d006832U, 0x3e2df6b03c052757U, 0xbd3d61a03ca5b9d6U,
  0x3dbcb5933e663092U, 0x3e9e03013d7e515bU, 0x3e5f8bc23cfc2fa3U, 0x3e812d6f3e2080d0U,
  0x3e1553913e893561U, 0x3d5502a5bd949669U, 0xbd3e09313d9743daU, 0xbdb36af43ca33ffcU,
  0x3d964e14bd6d591aU, 0x3d9f7328bdd7b493U, 0x3b2f2ba73abb3e16U, 0x3c1580593df17504U,
  0x3e37be623e05c1c5U, 0x3da6c88ebc56a3a0U, 0x3ba4217bbc433ecfU, 0xbbfbf3eb3beae8adU,
  0x3d2c750d3e16a2eaU, 0x3e107d8f3dd063cbU, 0x3d84db4d3d6f1fadU, 0x3e519e963e414409U,
  0xbd6974273d10de5cU, 0xbe5d7a9f3e3b1c84U, 0xbdbb0233bc93854aU, 0x3d887e853dd69bf3U,
  0x3cdcc5e53d701c3bU, 0xbdbb0bcbbd047c8cU, 0x3e1aeac53d9236beU, 0x3d8b5f48be15699fU,
  0x3d62742d3dd6cd35U, 0x3cd4d6483e1d73c0U, 0x3dcaca4d3e5ce02bU, 0x3e35585e3d46f3c3U,
  0xbd739dc43e39615eU, 0x3d8eef25bd08a06cU, 0x3da37969bcebeecbU, 0x3c87ffa53ca41ee2U,
  0x3c9f33053d732033U, 0xbd15a5c03e21a007U, 0x3e4bbd8ebd0d3890U, 0xbd1c344bbe420ccdU,
  0xbe8bd87a3e980527U, 0x3e552158be0cf8a7U, 0xbd12de78be0185e6U, 0x3e34ae083ea9f3beU,
  0x3dc22a4f3dc52b33U, 0x3c784605bda17e36U, 0x3bbbb84abc524efaU, 0x3e31ed99bca7f254U,
  0x3ceed68dbe11aa89U, 0x3d7558b03e5081d6U, 0x3e15216f3e261de6U, 0x3da8b8dcbdaec062U,
  0xbc5b6e97bc8b91abU, 0xbc07d12f3d0286e2U, 0xbd97ac683ac82f08U, 0xbde8d5cb3e06a5c2U,
  0x3eac25e63de04701U, 0x3cedbfd8bda9f7adU, 0xbdccaf963eb219c5U, 0x3eb54ad8be6ede62U,
  0xbe0f6c69bc89162fU, 0xbd886e3f3d7eb07fU, 0x3e00cfecbe315e22U, 0xbe105a29bdab304cU,
  0x3d4b663f3e377facU, 0xbd950c10bdd8d46cU, 0xbd105d0bbe6df129U, 0xbc646b113e5558a7U,
  0x3d9845b3bda8360eU, 0xbe18563dbd4cec49U, 0xbdece4443d8c66daU, 0x3c8e1f18be2e828fU,
  0x3cc5a756bdf373d6U, 0x3c0bc40f3da29d6aU, 0xbbc78e813ced07b7U, 0x3d47cc0ebce90e8fU,
  0xbc35f2313deb10c6U, 0x3e4ebeb23e1f8140U, 0x3de9959e3d701f49U, 0x3d16a10a3db278edU,
  0xbe9771923b8715daU, 0xbdc797983d4ab07dU, 0xbe0f7c98bdd8fea5U, 0xba5cd46cbe5c1e9aU,
  0xbdbfee5e3c1f7b0aU, 0xbdae23fa3dbf4e04U, 0x3dbf153cbe10a243U, 0xbd9a3d3dbd891c0aU,
  0x3c8442d23d3f9e90U, 0xbb8ce2d3be4b7a0cU, 0xbe61ec56bc4ca157U, 0xbb7b18003da5217aU,
  0x3de72096bd22febdU, 0x3e3f53613d0e158dU, 0x3e141daa3d719a6cU, 0xbe1b3d043e37a36eU,
  0x3d23b7273e5127f4U, 0x3db550ef3e05d67aU, 0xbce1d76c3db74b39U, 0x3e1de5883e365c2cU,
  0xbd259220be36c9d0U, 0xbe473a28be813471U, 0xbe5df69e3c12ed75U, 0xbe064301bd9ba0d7U,
  0x3db3fd9b3da4de11U, 0xbc4e13643d0e5295U, 0x3d3f9c083e81bf86U, 0x3e217dd63caa037aU,
  0xbdeea8e4bd9ff197U, 0xbc572841bcdd5548U, 0xbdbff5063dc250dbU, 0x3e3cbfebbdb66cc7U,
  0xbd84b4b53dc3105eU, 0xbcac932d3e819cf7U, 0x3e3b4e443d7a22a6U, 0xbb491391bdbe3be0U,
  0xbc61449b3e217f59U, 0x3d957ac83da11112U, 0xbd26560cbdcb4dc7U, 0xbe0e2fec3dac712bU,
  0xbc397f37bd00193eU, 0xbe0291a1bd9b0c83U, 0xbdaf5ee5bd65cf5aU, 0x3acc5f8ebd6d61d9U,
  0x3c9a64a43dd54847U, 0x3d9e37e23daff79fU, 0x3da4d1b43db00d33U, 0x3cfb8bfb3e44f778U,
  0xbd00e15bbdcf33aeU, 0xbcda6c513e515a9dU, 0x3e61cdb6bdc1dd61U, 0xbdc08f943e01c524U,
  0x3e5fc8acbd3facc7U, 0x3ce8e26bbd5cdd3bU, 0xbe13f81d3e1f5cfbU, 0x3d86b29a3dc6b4f8U,
  0x3ccfbeaabe78e305U, 0xbe8582d63d77b574U, 0x3da4eb013d0ed7bdU, 0xbd758c01beac7c3dU,
  0xbd21cb183e5d90eaU, 0xbd7e4f173dedac0cU, 0x3d4ec0f6be09f064U, 0xbc7f3176bbd8c482U,
  0x3d571708bd633e72U, 0x3e8da68d3ddb6669U, 0xbd1c2cc23d8e578fU, 0xbcdd79b73ce4dbdbU,
  0x3e7a4281bd284ad8U, 0x3d901c1c3e04bee2U, 0x3cb8a5ac3ea76887U, 0x3e7dc530bda4a45fU,
  0xbe4a338ebbbe4812U, 0x3d68af713e2ad564U, 0x3e092357be4c0857U, 0xbe502f0fbdd08d09U,
  0xbdd1e1de3badd455U, 0x3db9a9c3be4b8782U, 0xbe076561bd11ed34U, 0x3e8be01d3cf8b30eU,
  0xbd38e5de3df9750aU, 0x3e3d37473e32257cU, 0x3d209e7a3dbdd638U, 0x3cc1b3463d9d6152U,
  0x3dc830583e2c09cbU, 0x3e2d91ea3d0c5f7bU, 0x3db3c1da3d734539U, 0x3d371c1e3be7628eU,
  0x3d4da2a33e3f92adU, 0x3dd4737a3bb7eb39U, 0xbe28698d3d6edd5dU, 0x3de3e54c3e3f9efaU,
  0x3ddb0eb8be012b88U, 0xbe8638ccbdd91cbcU, 0x3cbd2c483d762e5bU, 0x3dce1bc9be60179eU,
  0xbe67a229bc82a032U, 0x3ce56dae3d041388U, 0x3d486ec6be6740b5U, 0x3e2648443e3deed8U,
  0x3d814e143cece32bU, 0x3dd864603dc52939U, 0x3cce46ed3c206d24U, 0xbe42a05dbc950104U,
  0xbda1f441be35e14aU, 0xbd7b3bf8bdcebb22U, 0xbd168b983e408d7fU, 0x3d08ab163de89c89U,
  0xbe52a1b7bdf91465U, 0xbc90f07d3c72ee43U, 0xbdfd7de83e48bd6dU, 0x3da27c14bd3238ffU,
  0xbe824aa3bd5c9ea2U, 0xbe3651293e7e5212U, 0x3ea82948be4667efU, 0xbcafc89dbdd06e84U,
  0xbe55ca03bc5e2837U, 0xbe3b0bbabd28ab6aU, 0x3e4058e5be0f9e0eU, 0x3d732073bdace035U,
  0x3da6349f3bb8ccafU, 0xbcdc649f3de58444U, 0xbda2c2dcbd4444f4U, 0xbdf61f22be3087b2U,
  0xbd507376bb870a5bU, 0xbc2ad8c5be9655e1U, 0xbdf8763bbe862b8bU, 0xbe4f864abd43f8bbU,
  0x3db831323ded7009U, 0x3eb93d5f3ce9fc42U, 0xbe8cf155bd94f65bU, 0xbda6289f3e8fd8edU,
  0x3d951e98be2d9540U, 0xbea8bf60be1c2377U, 0xbc2296e63dd9719dU, 0x3e1043ccbd1581e4U,
  0xbdadbb2abe18891dU, 0xbcc4db923e1f07d3U, 0xbe2d0006be041b94U, 0x3d069b58be3c40e5U,
  0xbd12ee0b3cd7c1a0U, 0x3e1d3817be2dda41U, 0x3d6941c2be0bc3b9U, 0xbd8c4d153c97a8d1U,
  0xbe45d6b7bddf24ceU, 0xbe2be3f0bc8e3ef3U, 0xbce3cc57be35215cU, 0x3d1d8d8ebe12ce25U,
  0xbcaaee9c3df7a49fU, 0x3e37f9923e414ed4U, 0x3e63a3e1bde66ab6U, 0xbdbd67fc3e0eefefU,
  0xbd10e5d83e79a285U, 0x3ea9f5c6bdf1515bU, 0xbd882eb7be5c8bfdU, 0xbe2784e93d5b39ecU,
  0x3cb60067be4eea6fU, 0xbcf5b3afbe6b9912U, 0xbd82c7973d8a6ce7U, 0xbc2db52f3da9fcc7U,
  0xbe8d01b6bd7fc374U, 0xbbb09087bd277fbfU, 0xbdb2f7dabdb88bceU, 0xbe44d23ebe2756dcU,
  0x3d09e508bdf7a2eeU, 0x3c11184bbd6dd3b3U, 0xbc94f7f33cafd46eU, 0x3cee01f33e54a08bU,
  0x3e9d1c433d395262U, 0x3e09237e3ddb53fbU, 0x3d85b0513e013e36U, 0x3e0ad0933e1c3dbbU,
  0x3e0d15e3bda95029U, 0x3bcd67a53d27cbadU, 0x3c35e5ac3ca2a357U, 0x3e360eb9bdd547f8U,
  0xbdf203eebe1fa166U, 0xbe8441a0be235689U, 0xbd371d443d8a28d0U, 0xbe71967ebe1fbd1aU,
  0xbc2dfcdabe7b8a5eU, 0xbe23f3b9bd246a95U, 0xbde53591beb55ad7U, 0xbe5b2b88be341e65U,
  0xbd99c3debdc2708aU, 0xbdbb10d03e14fb77U, 0x3e5c4d37bcf97c88U, 0x3e129a3f3cfe61e0U,
  0x3e71e9de3e4274bbU, 0xbdfb8e803e8a424eU, 0x3e9ebcaebbaa757cU, 0xbdc06876bd580805U,
  0xbe0ca1603eb453ffU, 0x3e0ea257bd7b1d47U, 0xbd941346bd029ac4U, 0xbe8a111c3e4e6bcdU,
  0xbd26bad1bd8c66acU, 0x3c3c8fc8be5a9e0dU, 0xbe435da83e2ce407U, 0xbd904c16bdab1a5cU,
  0xbdb4ba72bd991c00U, 0xbd82fce4bba40b3aU, 0xbd01f22d3de659d7U, 0x3d7baa883c77c050U,
  0xbd7b7d54bcc42e1cU, 0xbdd91b823c50290cU, 0x3cf4d0753e04a3b8U, 0x3bc427023c82455bU,
  0x3e33c86e3d7af06aU, 0x3cab75153e2fd896U, 0x3d24aa3a3eab0429U, 0x3e95b3253d6aa8eeU,
  0x3d949407be5983baU, 0xbe3b4db63e33404eU, 0x3e8900073c5d9736U, 0xbe1e31fbbe6be042U,
  0xbdde1be53d89beabU, 0x3d3f0320be64e6beU, 0x3ccc5981bd7fc54bU, 0xbe2d7fe2bcba10ddU,
  0x3db84252bd0bc826U, 0x3d2fe187bda53178U, 0x3d4cf75dbd9b5060U, 0xba0fc0f73d9446b4U,
  0xbd9a43503e46c033U, 0x3e1704a4be0fbe9dU, 0xbd869e983d0009ffU, 0xbdb85af6bdcb9098U,
  0x3b7914633c3e290cU, 0x3e62c1be3d7d7980U, 0x3d0f8085bea5d22fU, 0xbdfdd8bc3dbb13baU,
  0x3e0deafbbd42e686U, 0x3d632b1abd060542U, 0xbeee24f63df01beaU, 0xbe20bbacbe920018U,
  0xbe605dc5be7e5ec1U, 0xbe2938d33ca9cd96U, 0x3d67d379bdcd75afU, 0x3e039c81be434bdaU,
  0xbe8ae88e3da713beU, 0x3d1e5abb3d2aa823U, 0xbc75f9c3bdb4b569U, 0x3e5959ac3ca744baU,
  0xbd2b08c33d447996U, 0xbd0235703e040eafU, 0xbe3e2871be030189U, 0xbd1ac3b9bd7ba00cU,
  0xbc06844bbe2a179dU, 0xbe7f5c683c942166U, 0xbdea68993cd434ecU, 0xbd6257ecbde0ac07U,
  0xbe4115643e23e85dU, 0x3dd3593dbce35af6U, 0xbd2c76723d4c446dU, 0xbd203b8abba1766cU,
  0x3da82ae73df64e96U, 0x3d10c062bdff33e4U, 0xbcef8a943d5dddd9U, 0x3d1c36003de60af1U,
  0xbd0775cdbde56360U, 0x3d91d0133d80fe88U, 0x3d86362dbd91e8ccU, 0x3d74fdc5bc15b0fdU,
  0xbc4b9f083d12ad31U, 0xbdd4377e3e2bfa77U, 0x3e2a34cdbe201d06U, 0xbd7abc78bd8f12f6U,
  0xbe5ea1dc3e466726U, 0x3db050c9be965370U, 0xbe346ef43caa2fffU, 0xbb14b9bb3e1a57a7U,
  0x3dec93f5bde6fd3dU, 0xbdcb5a153dad1eb2U, 0x3c6219f93d19a8b5U, 0x3e2fc1e6be2070a6U,
  0xbc8441d73d8e3beaU, 0xbace64d33dcc9a8eU, 0x3d7fbf4a3cd4bf8bU, 0xbe004c73bbfb3910U,
  0xbba0c274bd875aa6U, 0xbd557a703d8c45afU, 0x3e27ddd43e19badaU, 0xbdc4bb8f3d99911bU,
  0xbcaa13b9bd4ea55eU, 0xbe1f4020bda0f3d6U, 0xbe2f4e85bc5247b0U, 0x3d60a3d33db6541fU,
  0xbda8a038be3b4468U, 0xbd4b70063c1ac79dU, 0x3cc5c74ebd00e3edU, 0xbba87f63bcdcace2U,
  0x3d3f3d593df3cc0eU, 0x3e4942493d47a93aU, 0x3e40db003df55174U, 0x3da4ebf23e710e21U,
  0xbd554f6dbd1887c4U, 0xbd4fe01ebddfe1e4U, 0x3d9ce6e23df365deU, 0x3dbbb698bb12f1f8U,
  0x3d830927bd031295U, 0x3c6896273e225721U, 0xbcc34430bc49aec5U, 0x3cc34eba3c93b3b7U,
  0xbb8382843c7e9262U, 0xbd9d21463d00ac59U, 0xbbe06836be8231a4U, 0xbd4bcab4bdfe8a70U,
  0xbe19143c3b939490U, 0xbd633fc2bd21696aU, 0x3da7e62fbd8cb0ceU, 0x3d9aafc03d93c56dU,
  0x3d2171bdbdd02a56U, 0x3c6033ba3d6673ddU, 0x3e0715ae3e16c2a2U, 0x3d84e4953d8aaf0aU,
  0x3d14413cbd8999d7U, 0x3e7c544d3da0c7edU, 0x3c951d223d68d59eU, 0x3da42ba7bd9f0f5fU,
  0xbc90fe1c3d50a57bU, 0x3c206d9bbcc398d0U, 0x3c3fba123c87e7e1U, 0xbe917a93bc2f8a58U,
  0xbdc328123cf6681cU, 0xbe3ace5bbe8ff0acU, 0xbeb54eb93c3ee4e8U, 0xbdc9e7b23c63d7d1U,
  0xbe11f46cbe81df20U, 0x3df0685dbd0e38c3U, 0xbce9de373de966e9U, 0x3e14e5e4bdbcf6e5U,
  0x3d6e688b3dc490c3U, 0x3e255a9abd29d86eU, 0xbe56191b3e12f361U, 0x3d3ffc00bdfab80dU,
  0x3d38fcb13c046518U, 0x3ca48d603de51312U, 0x3d2680e7bd5a6e9dU, 0x3cc4a0ff3cdfabdbU,
  0x3c5af6ef3e2940adU, 0x3d80977abd9db84fU, 0x3dc9fea53bb6b418U, 0xbc063b343dafc012U,
  0xbdc1e659bd81fee9U, 0xba302f5fbd839ddeU, 0xbd5668e0be071ec3U, 0x3e0680963d929026U,
  0xbd77f53f3d1c7309U, 0x3e35f6bb3e63e4a1U, 0x3ca334493e220c2fU, 0x3ea776ec3e6429b2U,
  0x3c93a5273d728515U, 0xbd2d8ded3deacd55U, 0x3e429e7e3db894a2U, 0x3dab4f093df4adbfU,
  0x3e2daaf53dbb39b9U, 0x3d3cf6053a39ce3dU, 0x3d6f5631bd4b53bcU, 0x3e2b62aa3c786fa5U,
  0x3e03b0e03d7765b2U, 0x3d55dfd43e5bddb4U, 0x3e7d53653cf9cd75U, 0x3e41caba3db49cc5U,
  0x3cfae93ebc3f2d15U, 0xbdc06bc63ca08945U, 0x3d132c243ea1200fU, 0x3e51e8b9bddd4781U,
  0xbd9f32313cd95881U, 0xbe12359e3e318c71U, 0x3d811e05bca11acdU, 0x3d9091b03c50d798U,
  0x3d98df34bcb38ff9U, 0xbd6dc6e7bd8107c0U, 0x3d0761123e09399bU, 0xbe3866893da3b47cU,
  0x3d97e69ebd3092bbU, 0x3e23bf1f3debdc0dU, 0x3e27dd603e70d34cU, 0x3e76c3a63dea055fU,
  0x3d9011863d0fc1ceU, 0x3acb44773e93d39fU, 0x3e2b1e6b3d69451cU, 0x3d9cefc5bdb5200eU,
  0xbda590a13e506a8aU, 0x3e1e0c4d3db4af1aU, 0x3cbb3d64bd996381U, 0xbc7c45583e025e7cU,
  0x3e491d473e06c487U, 0xba9270a0bd9b6dd0U, 0xbe15b5683e404cecU, 0xbdcd38fdbd827ddaU,
  0x3d8d5f5bbd960890U, 0xbe70836fbbd4ff35U, 0x3e25c6913e84bd09U, 0x3e54049dbdbac8faU,
  0x3e55002b3e49e228U, 0x3e699dea3e26c3e5U, 0x3dfa07d23dfe289cU, 0x3de07e2c3e5c989cU,
  0x3ddfe002bb3ed423U, 0x3cd57f49bd71167aU, 0xbdafbc9d3da3955cU, 0x3e5c9116bc845496U,
  0x3d04763dbe64d3a3U, 0x3d86ed893e3d017cU, 0x3c9475de3e2f8d1eU, 0xbd05b92bbd4cb90aU,
  0x3dab83043e1aeb58U, 0xbd93b097bc49aba2U, 0xbc2bb659bd0c0a70U, 0xbd3deec0bbf2fea6U,
  0x3ddcf105bdc235bdU, 0x3e5e0b6dbc92f229U, 0x3d1a08e53c8ef5cfU, 0x3d266e31bc96d134U,
  0x3d9dd4f4bdba9418U, 0xbdc0f8e13e05aacbU, 0x3d466c32bde48875U, 0xbcf262d4bd39f1deU,
  0x3ce3a1dd3d1c957fU, 0x3df3a5eabce3a654U, 0xbb2aae1f3ceeb2a2U, 0xbd599edf3bdbd88aU,
  0xbbd91b8b3d62d1fbU, 0x3d282056bdecbecdU, 0x3d29e927bcb1aeb8U, 0xbd5d716739d6c462U,
  0xbd7171253e91fbcaU, 0x3e3b763bbdd0b9fbU, 0x3d1615d23e03914aU, 0x3d2be23e3de89610U,
  0x3e2ebbce3e0123cdU, 0x3d019e833aef771aU, 0x3d9e45a23e12610aU, 0x3d9f2eccbac02f35U,
  0x3e0a0ed33d34bae0U, 0x3e2488d8bd8a9c25U, 0xbd0ad1063cde3308U, 0xbcaa5c06bdd6d937U,
  0xbdc811d1be21d7ecU, 0xbd1e63eabd300c0fU, 0xbe09ed543dd8a572U, 0x3ddf537cbdd27e9aU,
  0xbd60a769bdd3befaU, 0xbe06209c3df2223bU, 0x3d7cd2d73e60aee0U, 0x3de04279bc8c2432U,
  0x3a8c642a3dcec784U, 0x3cc7af4d3e778f11U, 0x3df37bc4bd4f34d1U, 0x3cd8a3773d3bdfacU,
  0xbd0438f3bd10c5a0U, 0xbdebad9f3c7ee068U, 0x3e4bcfdd3e016a18U, 0x3dc67811bd5be7d1U,
  0xbe3963e33df35979U, 0x3e12e7013c8dcaaeU, 0xbcb53d63be25bab5U, 0xbde182ce3dc9a15cU,
  0xbcfc05e8bdcf7bc2U, 0xbd0b196f3d5e0a91U, 0xbe6896edbe52f55aU, 0xbd8bc86a3e099cb4U,
  0x3dee7d74bd12c034U, 0x3e05679dbd19a988U, 0x3d2739833c7f248fU, 0x3df159e23dad12b7U,
  0xbb6fd5813bd5e76eU, 0xbdf86aec3dd19a0fU, 0x3ddd4aa5bde0e124U, 0x3b3020593d2034e5U,
  0x3e0e85bb3d9f7174U, 0x3db3f20a3ca6f820U, 0xbd90d5f53e49b9b4U, 0x3ea965e03e8ab45eU,
  0x3e8bff3abdd65e0aU, 0x3cb262093e9fbb83U, 0x3d6574f73e6333c1U, 0xbdbf6b84be0a1e9aU,
  0x3d07955dbddab140U, 0x3d862b273e27f7efU, 0x3e3302943d672b8dU, 0x3e0235f73cc62b23U,
  0xbbcf8c553e01446eU, 0x3cae54d53dc2f22cU, 0x3dc76e7dbd9a2cd1U, 0x3ca5980b3db8d123U,
  0x3e2d9d073d0196d7U, 0x3c9d74c83e66dd91U, 0x3e6aadc13e272a8fU, 0xbe4e95edbe20a5cfU,
  0x3e5e63173d8cfb31U, 0x3df415343e5fd488U, 0x3e99a181bdfba6c0U, 0xbd0e2b763e459e85U,
  0x3e9a23cd3e76595eU, 0x3dd0970ebe19942cU, 0xbd944d013e279550U, 0x3e1be3153da75541U,
  0x3d573a1e3da98360U, 0xbc844af03e2fdba2U, 0xbd39617f3e157a54U, 0x3d74ae8d3d90d77dU,
  0x3deab9fcbdcfc119U, 0x3dac32d7bcb4fdefU, 0x3e49ee2d3e858e4fU, 0x3e48aabdbd04ade7U,
  0x3e8e34853de21749U, 0x3b8104b73e51ee82U, 0xbda47eae3ceb56bdU, 0x3cd8f6c0be0d0d33U,
  0x3c2d55c3bd5c3bc3U, 0xbcec778b3de51c09U, 0x3e11f2803d994a48U, 0x3dbda33cbde8e79fU,
  0xbe8471b73e1f2a39U, 0x3d8bfbd83dd41bc0U, 0x3e2b9659be8d8eb4U, 0xbdbdae093e87c320U,
  0xbd23e10e3df978ebU, 0xbdc8b9fcbcc58332U, 0x3d84ce1c3c555ae6U, 0x3d94e4063dc51f36U,
  0x3d6e2f863e8a73eaU, 0x3e3892c93c61f83dU, 0xbd9db66b3d95e992U, 0x3e48fa7d3e9253acU,
  0xbe20d5c63df7f8a8U, 0x3d8db2b43e10791aU, 0xbd8974b7be044f13U, 0xbdcda3cd3c6bfb16U,
  0x3db3ee833c9fbbb2U, 0xbe14ef0bbe0447baU, 0xbe3980c93d809393U, 0x3d9959773c29cd26U,
  0x3cfa2840be5a642bU, 0xbe578197bc45ca46U, 0x3e3fb8eb3e1fde00U, 0xbc06f772bdcfd442U,
  0xbde18b62bd9d60f7U, 0xbbf9583c3e1dfb8cU, 0x3d823bae3d00e1e0U, 0x3e524fcdbd6b9534U,
  0xbe07ddfdbcac7954U, 0x3db94d843dbd5b45U, 0x3e52eadcbd28c2c6U, 0x3daf14d83eadf446U,
  0x3e9ef2883d984980U, 0xbcaa377f3cd683afU, 0xbd595f01bdb3a6c8U, 0xbdb97cdabe770e62U,
  0xbe958bd5be6b80b6U, 0xbe148b59bd5948bfU, 0xbdcab3f0be16b621U, 0xbe062cfd3d7a7f37U,
  0x3df656933d318373U, 0x3d8d25e1bdeb9a1dU, 0xbd0cbe28bd7088dcU, 0xbd8227013da57c6bU,
  0xbdbd14be3e05fd4bU, 0x3e363cd0bd30e14aU, 0x3c81fbacbd1a943dU, 0x3cd20ad63e74a259U,
  0x3d748bd7bd8c767aU, 0x3b96f86cbe0b31cfU, 0xbd66d3413e3c2beaU, 0x3da5b9dcbdcf7259U,
  0x3cc0fc523e032957U, 0xbcc1a3c2bc57db10U, 0xbde37aaabd695eebU, 0xbe4d50e2bdaca957U,
  0xbe18dacabdd0b9cfU, 0xbc203965bdcd518eU, 0xbda9b130bd9ee3c2U, 0xbd13a0abbd30786dU,
  0x3d81c1ed3d63d564U, 0x3e2cf9593d0e718aU, 0xbda35fc43e00cd0cU, 0x3dae32a2bd8044c8U,
  0x3d978eabbd29a65dU, 0x3dba585b3dcc399dU, 0x3e18faaa3cc62cbeU, 0x3e015f9dbe1e99cfU,
  0x3d7aea333e05d32cU, 0xbcc3135bbd10005fU, 0xbdb9f0063e8640dcU, 0x3e03cae7be656c1fU,
  0xbe90b0cdbe89a1e4U, 0xbdf496673e0f9c09U, 0x3d58aa90bdfcc39bU, 0xbd872a9dbda5209eU,
  0xbd40063ebd59c0c4U, 0x3d8bfb34bc76b57eU, 0x3c8af82dbde86838U, 0x3d4c9eef3dbc7c62U,
  0x3e60c0463daaf4e2U, 0x3d8b4ba43cb6c275U, 0xbd33ca963dead28fU, 0x3d5ab8103e6931dbU,
  0xbd236ff93d6f5682U, 0x3d7715f2bd35ce7aU, 0x3ea359563e1d3462U, 0x3bee9a45bc294ce0U,
  0xbe19d8313d2acfbeU, 0x3e071f4f3d0d30ceU, 0xbe99a4ccbe40bf34U, 0xbd6dec693e3f782aU,
  0x3cb5fbc73e25eee9U, 0x3cb2af47b9476428U, 0xbe4078343b28db11U, 0x3b5bd03bbe834899U,
  0xbe194609be1cad9dU, 0x3cdb2aa13e367175U, 0x3d0bb0cc3e35ce6dU, 0x3ca217183dba9090U,
  0x3e0225493d2a28cdU, 0xbdbad9c03dd0b79fU, 0x3d46b439bde289fbU, 0x3c8f9c78bc15b5c3U,
  0xbde112f43e3d770fU, 0x3e825e92bd94998eU, 0x3d98067abe006908U, 0x3d678dc53d8e4483U,
  0x3c9c6edabe21bce9U, 0xbe5169fabd31abbfU, 0xb9cca501be13cc73U, 0x3dfa51d2bc8a5c86U,
  0xbdf876eb3c209f40U, 0x3df6a8053e2da78eU, 0x3d75e8e53d3dfacbU, 0x3e413aa53e10a217U,
  0xbe1e6f213cddca5dU, 0x3de95e34be2e5ec5U, 0xbdc359ecbd57c56fU, 0x3d33bf583e26ccfaU,
  0xbd04d4f03d18bd17U, 0x3d4f5b243d474789U, 0x3d2f9d993dec1a70U, 0x3d39e289bcfa1efeU,
  0xbd9feffa3e08b1c6U, 0x3c3dd8583e490498U, 0x3d2056d73e6a8513U, 0x3d826af13dc424b5U,
  0xbdbd25843df3a697U, 0x3d19f4acbe00cfecU, 0x3cbab8263da22dc7U, 0x3d06a99cbe02c70eU,
  0x3db7cc9cbe8ba422U, 0x3cfea89c3dbee66dU, 0xbd3ecbd3bdac1c6aU, 0xbd864af5bd9b1774U,
  0xbc827704bd11b84aU, 0x3d3c6c67bd8dc625U, 0xbdd463813d8abbb6U, 0xbd2b68e4bce72a95U,
  0x3dee8280bd481177U, 0x3e5dfd8bbb714369U, 0x3dec39bb3e01cccaU, 0x3bd9c3093d9b30afU,
  0x3dfa05bc3e04dd72U, 0x3e854cc0bdd0092bU, 0xbd9a3488bd059665U, 0x3cf2aba9bd0b4a25U,
  0xbe1f3fcdbd908a66U, 0x3d9c47693d501f2cU, 0xbc0834713d02e2d7U, 0xbe1578d7bdd27046U,
  0xbd21968c3d947bbbU, 0xbd375a1a3d9b3f00U, 0xbd72af46bd5695c2U, 0xbd9f281ebe5ec434U,
  0xbdfdc42cbd1ff66fU, 0xbc0a47f43d518a82U, 0xbd31fd7fbc335529U, 0xbc285ffabc512e29U,
  0xbd062362bd0f393dU, 0x3c29f03d3e3fc761U, 0x3d8175c83da59ccaU, 0x3d552a7d3de97030U,
  0x3d4b97e83cd32b9cU, 0x3dcf6cb33d97f440U, 0x3df64a32bcdf808cU, 0xbe556628be6a1f44U,
  0xbe6e0e98be66406eU, 0xbd72422d3daac33aU, 0xbe3c0456bdf5116eU, 0xbe08cca1be1953abU,
  0x3d6dbe933dab9bf6U, 0x3d2669b0bdc982eaU, 0xbdc09ad33d23b16aU, 0xbccada353d2db262U,
  0xbd0674c73b031220U, 0xbd5bec4bbd06ee2bU, 0xbdc5d927bd8262a3U, 0xbdfd411f3cecb8a7U,
  0x3d4e711d3c3abff6U, 0x3e58fb91bdb84d38U, 0xbb16ec5c3d350ab8U, 0xbc9d2ac13ea54fc3U,
  0x3e0f3487bd753f5dU, 0xbd741c33be303849U, 0x3d0708623eb74017U, 0x3da4b908bdfa1e0cU,
  0x3cdc786f3dc11bfcU, 0xbe5b5aca3d901058U, 0xbe26d2d53cd8abb0U, 0x3df9b4a9be62992dU,
  0xbe26f1f73dff94f0U, 0xbdb4809a3ddb89f7U, 0x3cf773edbdb1df8cU, 0x3de894d4be207268U,
  0xbe26bfd43e14e312U, 0xbdd5c32fbdc1b7aaU, 0xbdedfc03be79b99cU, 0xbe11451dbe3b1523U,
  0xbde4fd57bcfc9e93U, 0x3dbe10cb3dc2d452U, 0x3e9a95a3bdbd50d4U, 0x3dc559d73d4972d5U,
  0xbe16497a3e23f858U, 0x3e8e2a293e69ed02U, 0xbdc92b1ebe718b54U, 0xbe928eb13db59a71U,
  0xbd22bff73d0382efU, 0x3d6c0a953a97e3ceU, 0xbe1b6a143bd6dbbcU, 0x3d3fad363e280e8dU,
  0x3e0d1bddbe9ebe49U, 0xbea5ffa53dbd310fU, 0xbe0a3f3d3e39bf5aU, 0x3df63573bc8255e0U,
  0xbb9c56503c5d22c3U, 0xbe5554eabd1e8722U, 0xbe1ee696bc9dd9d1U, 0xbe1b092abe9bc1d5U,
  0x3c41caae3dac28f3U, 0x3df03fe7bd96148cU, 0xbdebd1a03dae24ceU, 0x3d0d0c9f3e40a9b9U,
  0x3e3e18c3be7e5a78U, 0xbe31a9e53e06a5acU, 0x3e7b9cd83d12b3d5U, 0x3c9ee8cebde022a4U,
  0xbe3ca1653e588932U, 0x3dbe9da43c3dca1fU, 0x3e7ea63dbe3dbddfU, 0xbe1fc8493dc8f436U,
  0x3d975c6d3e01576aU, 0x3e337772becf4f21U, 0x3d5414e43d455748U, 0x3b4d62e33e0bd176U,
  0xbd8d4fdd3e3b2b7fU, 0x3e21e7e8beabec44U, 0xbe1ba450be11d360U, 0x3df23361bdb0fe0dU,
  0xbdf3e008be3f9cd9U, 0xbe22e5d13d15c62fU, 0x3df2aa4abd8554b5U, 0xbe8b09df3da393b9U,
  0x3d7552a4bcd49812U, 0x3d0e43973e18061aU, 0x3e77c4a73e86ea2bU, 0x3c0e09e53da7cba8U,
  0xbd6027273c0c1649U, 0xbda567e63c73bc00U, 0x3da8ac7d3c2a1186U, 0x3e78112dbce6ba7aU,
  0xbe21ea603e24e148U, 0x3cf7d74b3e0384f3U, 0x3e01b37abdecd842U, 0x3d967eaebe8c8abbU,
  0xbe5aec08bdbd874cU, 0x3d83493d3e729f02U, 0x3e374258be20a5d7U, 0xbdf5fe5f3dc444a6U,
  0xbe0c59ac3e16f014U, 0x3e6eded1bd055cacU, 0x3dcf4c743e18bf0dU, 0x3d3d4e723e32a29eU,
  0x3e353d11bd527d79U, 0x3da2ba0c3da58192U, 0x3e849932bdafb516U, 0xbc8fb4bd3d6944afU,
  0x3d5fde163de6548dU, 0x3d224337bdab5497U, 0xbc52986cbb59478fU, 0x3e23010f3db93309U,
  0x3e03997b3d51bb8dU, 0x3da845653e5a77b8U, 0xbeb0a913bd2d5fb1U, 0xbda6e2f23e94b079U,
  0x3edce26bbe38ef50U, 0xbcc18ee93db8897aU, 0x3c10d2493e98561eU, 0x3e560a74be913212U,
  0xbd3652cabdcb9affU, 0xbd9291e53e5b565cU, 0x3e2ffc023dc74473U, 0x3dca84133d962d1bU,
  0x3e27586f3e8c4a4bU, 0x3e73840d3d866f61U, 0x3e3ac4c53e60017dU, 0x3c805c2a3d8fdda3U,
  0xbda9073ebd08490bU, 0x3e05d1993e3d2d38U, 0x3e83a287bcb9ae4eU, 0xbc12be213e6c4ad0U,
  0x3de391813c5ee916U, 0xbddedd0dbca0a962U, 0x3e215f7ebe3dee3dU, 0xbe1e03cabe1589e9U,
  0x3d8ac0ac3e350b0bU, 0x399c185cbdd9bf13U, 0xbdd9aaefbc15c661U, 0xbdd59dd63e1810b6U,
  0x3e86fe98bdd8052aU, 0xbc97d3fe3d195db1U, 0x3ca874523cae5272U, 0x3de49ecdbd29d006U,
  0xbd3fa761be3ec204U, 0x3e41a4e53e444c76U, 0xbd86c96c3e4addadU, 0xbcdf6826bda6a7cdU,
  0x3e1226193e134b0eU, 0x3c8e53cc3e2173cfU, 0x3e071e7d3e482e28U, 0x3e04f9f43e0585d7U,
  0x3e02b8313cff1d61U, 0x3cd51ce7be004ef7U, 0xbf0002b4bd0ee838U, 0x3db4b138be4e21a8U,
  0xbd97024abedadd21U, 0xbe8c34f43ceaf959U, 0x3d3819b4bd48acbbU, 0x3d1f1544becdac4aU,
  0xbeb319bd3e4e24b7U, 0x3e3defa03d00284bU, 0xbd6eac9cbea607f4U, 0x3e03ae423e1a2900U,
  0xbe200a21bea87263U, 0xbe766c0b3dfaff42U, 0xbd6d48e1beca0718U, 0xbdb66968bdaee5e7U,
  0x3dab8af83e28caedU, 0x3da19d1e3d60ca38U, 0x3df8a5393dcd0ac2U, 0x3da7a5023e3eeeedU,
  0x3e03c3b53e0eb8cdU, 0x3e22cbe8bd8be831U, 0xbdde4019be5034c0U, 0xbf0eb2d0bc8df9c8U,
  0xbd8f7e7cbe28cf7eU, 0xbdf964e3be8c6545U, 0xbe5e3c8dbd9d6b2cU, 0x3ac55c9bbdff1587U,
  0x3c12b90fbd8b90f9U, 0x3c1ad92cbd4bb3c8U, 0xbdc04de4be50dd86U, 0xbe5b74863e7d7bf2U,
  0x3d791e00be47ecfaU, 0x3e0b88913dfbe0c2U, 0xbd3d69a53db1d743U, 0x3dbb5f903dc982a1U,
  0x3e8385a43e040d5fU, 0x3dcb77043dd00b7aU, 0x3e067042bd2d7b0aU, 0xbd3ed1c73d851bb7U,
  0x3d7f60f239aed4c0U, 0x3e7b71aabd676be5U, 0x3a354ebdbd9a5b93U, 0x3e072cd53cd73d28U,
  0x3dd9c86dbda3a289U, 0x3d95059e3eaf1d62U, 0x3e98820a3e6b2fb6U, 0x3de735383e3919e4U,
  0xbdb1fd9e3ab452e3U, 0x3e386795bca24ccdU, 0xbde5f1d7be245535U, 0xbd103bcebdcf8949U,
  0x3d7610913d890438U, 0xbd413ebb3e69d7b5U, 0x3dedd8fa3da5f43cU, 0x3c1274aebd1425faU,
  0x3dba803cbc981c07U, 0x3d9c5c9a3e43d726U, 0x3deb8eff3daf8d0fU, 0x3cc6a043beb0af3fU,
  0xbe91ee133e5890d1U, 0xbd21a0e0bd4cd8d0U, 0x3db17500bee3d1f8U, 0xbe1bb4503d92bb1dU,
  0x3c8ed8bf3d25a0b8U, 0x3d8af53d3e5a6dccU, 0xbcf7a41ebe046e02U, 0x3d7b58abbd5855ecU,
  0xbe1a939b3d22e584U, 0x3ca1e872bda265f6U, 0xbdbe2f003cd1655eU, 0xbdfbb38bbcf97d38U,
  0x3cc061e2be00f24aU, 0xbc893351bd161114U, 0xbe3c8adebe0474c3U, 0xbe6c7b7dbd206114U,
  0xbccce6dd3d3cc587U, 0x3d123cf7be900c71U, 0xbf11879c3dca7140U, 0x3db1a1f3bbe833b3U,
  0x3d69d03bbe932819U, 0xbeacbd5fbd2f2d9dU, 0xbd8a3ed43df85efeU, 0x3d197a49bd9e7868U,
  0x3e582b2cbe0633d7U, 0xbdecbbb83e0d4c42U, 0x3d874d113d5013baU, 0x3d50229dbe296b91U,
  0xbe8df7aabde2f2f5U, 0xbe17d8b13dfbf758U, 0xbde39a1ebdf1b753U, 0xbdb50d1cbc09d7e4U,
  0xbd6c5ae9bded1cdbU, 0xbe1f6eddbd85ea88U, 0xbbe8cfc6bc5dc689U, 0x3c837154be19d4ceU,
  0xbe88c9853dc920a4U, 0x3d4d23cfbdae7887U, 0xbbdb1b0cbeec7555U, 0xbe71ce6a3d003befU,
  0xbcdc80823e04a21cU, 0x3dc74cdb3d12e1d0U, 0x3e8e52b13cd681c5U, 0xbea04ba33bb4e881U,
  0xbe63cf163e985b69U, 0x3e9f50d2bdbcdd82U, 0xbe21e47cbd905777U, 0xbe5c4c223ee6e0b5U,
  0x3e4e3c5bbc35889bU, 0xbe2ceb08be0902e7U, 0xbd8deacd3df3355cU, 0xbdd0e8eebe306d62U,
  0xbe0a70043c600589U, 0x3d809738be9f5cd1U, 0xbeece520bdbdb00aU, 0x3d806104bd2d7c98U,
  0x3cc0b14bbeb97ed5U, 0xbeaf851f3e2902bcU, 0x3e0bc9513de8af5cU, 0x3dfd318ebd997ed3U,
  0xbc811a843e5e620eU, 0xbc1cc53dbcad31f1U, 0xbdcc452c3dc16243U, 0x3eb74fd0be81a38bU,
  0xbdf1b1e1bdc574b4U, 0xbd4868763e8f444eU, 0x3ecdf7c23d5ed374U, 0x3dd49da63d261e2bU,
  0x3e276f613dbb1d45U, 0x3dae944abe3ca0acU, 0x3e2ca75e3deaa240U, 0x3e4345883d8db523U,
  0xbe5c052dbd2bb147U, 0x3d9b6aba3dea8df0U, 0x3e0bb6b6be97cf23U, 0xbe9848a03dfae44dU,
  0x3e6f15253e03dce9U, 0x3d89a274bef4549aU, 0xbe8c36f03e7d8776U, 0x3d9f08c9bdb60db3U,
  0xbdeed959bd8686ddU, 0x3e3baf54bd880241U, 0xbd14c60f3c309dcfU, 0x3cbc63793e185cbdU,
  0x3de2445f3e0fec2eU, 0x3e35ec8cbe148125U, 0xbe21edf83d525bf5U, 0xbe8703e03df58353U,
  0xbd00a4903c9d3f66U, 0xbd931ceabe437196U, 0x3ddf44ca3e1ddc9eU, 0xbe13a220be026442U,
  0x3d3bcf7d3d362f05U, 0xbeb3576a3e581aefU, 0x3d2cdb14bd6e4b1cU, 0x3d97301f3b8f10ccU,
  0xbe8db3df3e7d8cb8U, 0x3e0667a6bd38e5aeU, 0xbe08edabbe4d4670U, 0xbde6839b3cd5713fU,
  0xbdc781ff3c90b2f5U, 0x3a9a0c133e2a4b60U, 0x3e2ac4803dc83e96U, 0x3e127a1e3c89fcbbU,
  0x3c8b1d6f3dcd67c1U, 0x3db7daf53db9e6dcU, 0x3dc7775cbd583153U, 0xbe6f9998bd725d8fU,
  0xbde938f73ddd0104U, 0xbe5258f6be56760bU, 0xbe31429ebc843f9dU, 0x3ca1e0dabd6e28cfU,
  0x3dc3778ebd21694aU, 0xbc2e543cbdf11696U, 0xbdb792863e0d32ccU, 0x3e23d6cabd4c50a3U,
  0xbe075d9cbd59b49aU, 0xbe19c0fc3de59ffdU, 0x3d3954d5be1b9331U, 0xbd1e5af8be2b4a42U,
  0x3d9c25c63d4102f0U, 0xbcbc316dbd9f9eafU, 0x3da29e6cbdb86b94U, 0xbe1cf9f83e86b9ebU,
  0x3dc21dabbd34c1a2U, 0x3dde54aa3cd60e34U, 0xbe3ac78fba041cb4U, 0x3cc44402bd903751U,
  0xbe01df1cbe8fde68U, 0xbe5183bdbe4f295eU, 0xbda573113bf95248U, 0xbdb5d5653d30eb50U,
  0xbe181cd5bba429b3U, 0x3d18910cbd850cbbU, 0xbdf6f04a3d446316U, 0xbde645433d9166ceU,
  0x3dd4d68cbdb58837U, 0xbd8a6220be0b84e3U, 0xbe1f50c53c15c544U, 0xbdb53bd1bd582ac9U,
  0x3c57e8bf3aca419cU, 0x3afb43a6bdae6fe5U, 0xbcff22023dcebc2fU, 0xbc981562be29dc22U,
  0xbe0af9493d2e01c2U, 0xbd8b6d983d67dfcaU, 0xbc69876dbe6599caU, 0xbe8c6cb3bc411385U,
  0xbe40f57abdc213a6U, 0xbd76fe7a3d0e21d1U, 0xbcfa66c8bd2aa6acU, 0x3c4273f23d852216U,
  0x3ca99a903c9e19a9U, 0x3dadedcfbd13bc59U, 0xbcd0af9abd5882e6U, 0xbcf3e2ed3dd9cf2cU,
  0xbe23fe4cbd809410U, 0xbcae014bbcdef275U, 0xbdb2962ebe0d1f8cU, 0x3d1cda7ebbcd71cdU,
  0x3de2d80a3e1366c1U, 0x3e8daf49be010dadU, 0xbe8f0a48bcaade91U, 0xbdfe6b4c3e36cdc3U,
  0x3cc6bab1be53ac9cU, 0xbe4e0eddbd3a9ff3U, 0x3d99b34f3dad4ee4U, 0x3d8bd24dbda78b83U,
  0xbdaf426d3a187254U, 0x3ca832f23e316b8dU, 0xbe0017af3d2104c3U, 0x3d2a149dbd03d5c2U,
  0xbcd4fad6bb78e2efU, 0x3d646d2f3aa90109U, 0x3e912fd33c613532U, 0x3d973500bcbb52b1U,
  0xbdd3e3b53e270859U, 0x3ddf3501bcd959cbU, 0xbcfa168e3d05e70fU, 0xbd9561e63d9249bbU,
  0xbe48bc9cbe1fe60dU, 0xbd71ffe4bb307413U, 0x3dc09da4be5d539cU, 0xbe0ec77ebe3c876aU,
  0x3cd5c560bd9fee73U, 0x3e034d8bbd9dea89U, 0x3d4a396e3ddb0707U, 0xbbe1a6fdbdf1043fU,
  0x3dc296813cdaaa9dU, 0xbd86db9c3d72b37aU, 0x3d20edbdbdda3695U, 0xbe0c96ed3b5477f7U,
  0xbd1298973e229c8cU, 0x3d2d4417bd8845dbU, 0x3d4a82da3d08c9faU, 0x3e1b0c5b3e0c46ceU,
  0x3da07671bd15f2dcU, 0xbd6de5033d619e32U, 0xba6b63723c9feafcU, 0xbe0b3b42be51203aU,
  0xbd1a4f90bd8f4280U, 0xbe0e60f73b98241fU, 0xbd9082ce3d864721U, 0x3e04b6a9be90ac73U,
  0xbe1b59d53d0b4ae7U, 0x3e013660bc6c7b31U, 0xbd8f870c3c81db79U, 0xbd85d7d7bd5bad50U,
  0x3e0904073c1cc801U, 0x3dd2eceebd0231d5U, 0x3c924c953e208ca1U, 0x3da98a2f3d1526d5U,
  0x3dc6517f3c80e091U, 0xbd8e6c72ba761242U, 0xb9a93cd23e694ab1U, 0x3de2b2763d606db9U,
  0xbbc79cac3dda5624U, 0x3d8d920fbe5b8482U, 0xbe8547a9bcb3847aU, 0xbdba06a8bd63d5b6U,
  0x3e4df9813c5b0f3cU, 0xbd23013cbdbeb0bcU, 0xbd8914e3badb8860U, 0x3c7d123fbd4c91bfU,
  0x3dc15a37bd56de81U, 0xbd41e612bcaf2bf9U, 0xbd195561bd1bf009U, 0x3def72f83da0630eU,
  0x3c9912183db25565U, 0x3e9b8d3d3e8ff1c3U, 0x3ec710663e7c4aa4U, 0x3e97e37c3e8db4dbU,
  0x3e5b96603e0a466fU, 0x3e944b723e41e100U, 0x3e990e5b3e060313U, 0x3e49d4f53e9c8516U,
  0x3e56478abd136039U, 0xbc90ef7a3dbde7d2U, 0x3db404eebc15cea8U, 0x3da79cb2be85f76cU,
  0xbe3e57203e777291U, 0xbd7d4279bda6f665U, 0xbdabb724bdc43046U, 0xbebfadafbc366af0U,
  0x3deea493bc81f4f8U, 0x3e01a1423cf09271U, 0x3e359e71bd5f5c1cU, 0x3e6116e43a97928eU,
  0x3e036f3bbd20f85bU, 0x3dc50e1c3e8f25fdU, 0x3e9b8babbcc838e5U, 0xbd522918bc1106cfU,
  0xbe701c043e599bffU, 0x3eab10c73e14d382U, 0x3e06cdadbdc69798U, 0xbe23c6573e6a123fU,
  0xbc3ab6ec3d0bd39dU, 0xbe42dcc1bdfab9f1U, 0xbdf5a0dd3d7d4c88U, 0x3da423cfbe2c2a45U,
  0xbe013092be43e65dU, 0x3d2d43a13dcd654fU, 0x3e3c51d1bcc79862U, 0x3d26e36dbd8ffb24U,
  0x3d821f79bcbe5ba8U, 0xbd07a5bf3df69401U, 0x3e3a0f473e2dd3bfU, 0x3e42ab613ec18c75U,
  0x3d5294fa3c9af34fU, 0x3db0348bbd7144abU, 0xbe4a6e0c3e7af56bU, 0x3e8df50ebc865befU,
  0x3db2b4fbbeccc62cU, 0xbe3926833cb14bd0U, 0x3ddb57b3bb0a6b1bU, 0xbdbf4763be5d43d2U,
  0xbe46eaa9bd5ff8a9U, 0xbd879dd0bcb3822cU, 0x3d9707dfbe1fef07U, 0xbd2cd117be24c243U,
  0xbe7443213d2cf02fU, 0xbd43f696bd1f53d4U, 0xbe230eeebe295453U, 0xbdecaebabe705e1eU,
  0xbe3f5814be3a296dU, 0x3d8c935b3cf47123U, 0x3dcf612e3e959eccU, 0xbcda0562be595357U,
  0xbe972081bd810999U, 0x3d9b1c593df4d4b0U, 0x3db58f87be903d32U, 0xbe2013c83dfe2fefU,
  0x3dd47752bd962637U, 0xbdfa22ffbda8a0bcU, 0xbec70ac73de8b906U, 0xbe1f872b3dcd8d61U,
  0x3e167e4ebe9bbd0fU, 0xbe85ff8fbe1ed67cU, 0xbe2bba5f3e9d5baeU, 0x3d57693dbef29a92U,
  0xbe2044ddbe79b9f2U, 0xbe4e55b1bdb5fa62U, 0xbe05f06a3e822b53U, 0x3e6ab395bd2ec9ebU,
  0xbb4ded20be18482cU, 0x3dfab516bc8c7586U, 0xbe6bc2f83d0f92cdU, 0x3dc7ca583e0e715fU,
  0x3d794235be9b7a14U, 0xbea3af50bda41954U, 0x3de2139f3d3314bbU, 0x3d2ee3bfbe020f59U,
  0xbe536dffbd220b32U, 0x3d8c5d21bb62038cU, 0x37b25a28be69bfdeU, 0xbe9b20f4be08e9c0U,
  0xbe74d99b3e52debdU, 0x3e5a1a9abcf7f738U, 0xbd6b3786be2c4380U, 0xbc1f747f3d7bb3efU,
  0x3bcf0a4cbb92c1e9U, 0x3e24f840bd0d21ccU, 0xbe82869e3d61e9dbU, 0xbd49d33cbdf70af7U,
  0x3e5195a3bc9aac4cU, 0x3df046c63e24f63bU, 0x3dae63713b857a33U, 0xbe4365ea3c60d1cfU,
  0x3cd3deab3cc1e88bU, 0xbd387fb8be358d42U, 0xbeb1f0723b908b3eU, 0xbdd77dba3de23a9fU,
  0x3e0dc859beca19a4U, 0xbee70fbd3aed334eU, 0x3c39b3b73e7bc8b2U, 0x3e8bda88bdfef0bdU,
  0x3d52aa6e3cd52352U, 0xbb6bbdc63ea4a13dU, 0x3d57efea3d806eb3U, 0x3dbae5ff3c8a4206U,
  0x3e1f2876bbc2fa56U, 0x3d022fd03bf78e36U, 0xbeb18cf5be7a5670U, 0xbd7bcb77be038ac3U,
  0xbcc2f368bd164f84U, 0x3b86aeb83b10a218U, 0x3c84b98d3d26397eU, 0xbd936ad0be551242U,
  0xbe7f0989be09a377U, 0xbdfbb84ebd4f8c22U, 0x3e28b690bebda90fU, 0xbe90596fbd44d6f7U,
  0x3d9917cd3e634099U, 0x3de3675dbe89f0cfU, 0xbdfc2fe63d98a090U, 0x3d69783f3e279e97U,
  0x3dffbf723dc08179U, 0xbdcf096d3e6f9275U, 0x3e932c3a3d6ce126U, 0xbc046bcebda4a65fU,
  0xbe5f60c73e859542U, 0xbbf46305bdbdfbafU, 0xbdaaa9b3bed38032U, 0xbddb520bbd2fd484U,
  0xbd3b13c1be467371U, 0xbd79283ebcd687c7U, 0xbd8520203d565d1fU, 0xbd76f6d13d25d33bU,
  0x3d74a3313e838419U, 0x3dd87ac63da9c09bU, 0x3ccdaf1cbda3df9fU, 0x3e5ac0e5bd9d39a9U,
  0x3a9d22583e67119bU, 0x3deef0873dbb4ef3U, 0xbd37ea01bdbde46fU, 0xbe91f7e037ca2b9cU,
  0x3e2bed1639c76264U, 0x3ddb9f9ebd462e43U, 0xbbe2400e3e1476e8U, 0x3e4381dc3ba7c7f8U,
  0xbd3b62a73ccd2ac4U, 0xbe5576c33d631f45U, 0xbd96bb41bdd8b93eU, 0xbe4da9b0be8133abU,
  0x3d3badf7bc8531c2U, 0xbbb33c6f3e05e2f0U, 0x3b2d5eea3de576d7U, 0x3dc225f3bcdb3a20U,
  0x3d869409bdb0d8deU, 0xbd71efc73e098273U, 0x3e13a70f3dc04f27U, 0x3e886bf53da0253dU,
  0xbc13bbfcbcc26e77U, 0xbd2e97163e3d52b5U, 0x3cb348b8bd636e30U, 0xbde80d19be9a7fa7U,
  0xbe6fab2abe1cd49fU, 0xbe05d9233d64967dU, 0x3d6698ffbe15abd2U, 0x3c7aba933bddaed7U,
  0x3e4c3c3c3cff67e8U, 0xb8cb2b35bdc3dc51U, 0xbc547417bd65345aU, 0xbe0fb1af3d2be73bU,
  0xbd54ccf3bc98d818U, 0xbb9794243c9f0402U, 0x3d30de41bd88f595U, 0xbe02dcb7be2ac609U,
  0xbda9fcc1bd6c00d1U, 0xbd408a73bd0fb03aU, 0xbd9fe34d3e0cb29fU, 0x3e02a3383dd06c00U,
  0xbce47eb3bd02ec4bU, 0xbe10c00ebdecf0cdU, 0xbdc1005dbe1bc909U, 0xbe5bb023be2f5974U,
  0xbe0814da3d858fb3U, 0x3d7e1e60be323437U, 0xbd94dedebddf9ed1U, 0x3e309ad13ce190eaU,
  0x3dc623e53dccd7ccU, 0x3d4b1ec4b992f581U, 0xbdbb560d3d056f44U, 0x3ced62ebbb42a99cU,
  0xbcc70fde3d5d6e36U, 0xbb9b1ca43c28abc3U, 0xbdcd7b453c54c9eaU, 0x3c8c03ca3cfb8944U,
  0xbdd3e417bda263e7U, 0xbd9294693d0818b5U, 0x3d3f3202bd83e15eU, 0xbe2bc3cd3e1d2a20U,
  0x3e0e63fa3daf66e8U, 0xbe2027c3bea87d7fU, 0xbe86582cbc3d1765U, 0xbcb020d2be7b3b37U,
  0xbeb9c3a3bde1632dU, 0x3df85410be64aae5U, 0xbe2b3125bd7d58b1U, 0x3e020de13e4dbf9dU,
  0x3dda7e443e182d75U, 0xbdc1e52cbe1c8ffeU, 0xbe09d2323c7d6e88U, 0x3e04d384be033c4fU,
  0xbe06d114bd4e8f48U, 0x3b0c7d423e3d85aaU, 0x3daa67be3cb67a29U, 0xbd80b25cbdacb848U,
  0xbd3da097bce9ee93U, 0x3dd18798bd2af80fU, 0xbda18f4a3e331b8fU, 0x3db7d6af3e5511f5U,
  0x3e01e1ed3cfb4a9aU, 0x3dd98ebb3cd9fb82U, 0xbe1886f63d74ebe9U, 0x3e4b28e8bc4b5f71U,
  0xbeaaf65fbe605afaU, 0xbd8790c63e5ec591U, 0x3dcfea2dbe95e96cU, 0xbe581d4dbdc4df10U,
  0xbc9054c83dfaceb3U, 0x3de3e70a3e600a74U, 0x3e2346703e208b9bU, 0x39fd65523e272a9bU,
  0x3da1a1333cb6eca2U, 0x3d3ab3813e17430bU, 0xbdd198093d63702bU, 0x3d8a81a6bd789201U,
  0xbdd6ca38bc841224U, 0xbcca73d63e4af2ceU, 0x3eab9171bddc3a91U, 0xbdec7af43decab8dU,
  0x3d0608743e63c125U, 0x3e6145fd3d5b0af0U, 0xbd6f8c983dce52c6U, 0xbd6a9e9e3dd93818U,
  0x3c6c1ed3bd1faad9U, 0x3d971f6a3c87c3a7U, 0xbcbd96a7bd3f3deaU, 0x3e09ac7ebc88f282U,
  0x3d85a5ea3df79e13U, 0x3bb1f0b53e20e0f4U, 0x3e8d9f133e88646fU, 0x3ed8c4003e91e397U,
  0xbd919a773ddaabbeU, 0x3d8814a83e66001bU, 0x3ea59f5d3e9f5b9aU, 0x3e926b013dd1c5a6U,
  0x3de7a4023ef3c9aaU, 0x3cc73a333e367451U, 0x3e712ad43bf94174U, 0x3dc3cd8dbe68fab8U,
  0x3ca1fff23db5c716U, 0x3de51dbe3e65e8f4U, 0x3db343943d74410cU, 0x3e3154e1bdbb5db6U,
  0xbd4dc2973d83f282U, 0x3e1774173e235de0U, 0xbe8234bdbdb87383U, 0x3e0a8b68bdaf0347U,
  0x3e18ff933e06f767U, 0x3e0acad33e8729abU, 0x3e27c1233e22305dU, 0xbb776e9bbd3dbdc7U,
  0x3d7c2b4ebe5b0cd7U, 0xbd8f8805be084d70U, 0x3dab98ac3d937db2U, 0x3e85ac333e4d272dU,
  0x3e034d17bc1a3393U, 0x3dd805c73ec8b63cU, 0x3e0a8b523d8eb117U, 0x3e259df03d828d0cU,
  0xbc86d90f3d220df9U, 0xbdf017273d7d9889U, 0x3cd65ca2bd0406f2U, 0x3d475536be19557eU,
  0x3d8c0e5ebe17fde4U, 0xbc674a8c3cc23343U, 0xbcf65497bd91f3f1U, 0x3e679bd13dc173c7U,
  0x3ea486003ce58275U, 0x3c23b1b23ea38959U, 0x3c5a4fd13e01499aU, 0xbdad6568bb8708dfU,
  0x3d33ac863ebabdc2U, 0x3ec582223d6642eaU, 0x3dbc753f3ca384b9U, 0x3d7125c53dc89ab7U,
  0x3d9f588a3ddc6c20U, 0xbb2920983be0cac8U, 0xbda167c43e52d8dfU, 0xbe3871593de6ddffU,
  0x3b0fe737bded24f3U, 0xbea1b3d6bed0cd38U, 0xbeed0a873e1f5e85U, 0xbe0d3304be285316U,
  0xbe516442beb7571bU, 0xbe9305fcbe2dc12fU, 0x3de436c8bde5581aU, 0x3d00bad23e5aadf7U,
  0x3e8ebd4e3d239964U, 0xbdfdf4923d16ec0fU, 0xbe1f5b153e77d467U, 0x3e3b063abe381e69U,
  0xbd332bd9be00cf85U, 0xbd9873cc3e8bf950U, 0x3e7a1495bd995b22U, 0x3d411f33bde9c68fU,
  0xbd52a141bce489f2U, 0xbe0274f83bf40470U, 0x3b5985eabdfa63e5U, 0x3d25b635bdc88f2cU,
  0xbde595493e042748U, 0x3dbad027be0474b3U, 0xbe98f270bf1137afU, 0xbed42b2bbdc2e088U,
  0xbe33a55cbe799cbaU, 0xbdca8d72bec3c348U, 0x3ddc5e5a3e186cfeU, 0xbd406a9cbdabf1c8U,
  0xbec400ca3d8cc117U, 0x3e54e511be044196U, 0xbe9e0e9cbec3cfd1U, 0xbdacf6db3e85153fU,
  0x3da46922bdd2d462U, 0x3bd5ded13d65ce2eU, 0x3dc9dff93d0d68feU, 0x3c46124abd34430fU,
  0xbc8293e63cc50412U, 0xbcbed0afbe34b687U, 0xbd2f2344bcb8fefaU, 0x3d3480eebd8e84b6U,
  0xbd22cbf3beb5f48eU, 0xbe9105c0bcbf5afeU, 0xbe83f91abdb56628U, 0xbd68d7b4be6300f9U,
  0xbe597743be0b78ddU, 0x3e0bc611bdd27b82U, 0xbe9960efbe3204b4U, 0xbe3feae6bebd754bU,
  0xbedb4f76bece2c90U, 0xbd068d3abd98234dU, 0x3df61904be90b8bbU, 0xbe60d7443e21801aU,
  0x3e5429f6bd124b0cU, 0xbd803739be5d1cb0U, 0xbde67f873e0b5393U, 0xbdbc640ebdce55b3U,
  0x3e567530bdb25aa1U, 0xbe104712be8225e8U, 0xbe570f683dab793cU, 0xbd1e521abe015906U,
  0xbe601c1bbe724689U, 0xbd8acc7fbe37107bU, 0x3bef8f1ebd5bd016U, 0x3d9599a83daf24dfU,
  0x3e50c9efbde13fd8U, 0xbe966461bd4d5b93U, 0xbea8d2783db40455U, 0xbdea53ecbe8f6b67U,
  0xbddccd0bbe89b83aU, 0xbe3b5d10bdc43e27U, 0xbe25b2a43e17de68U, 0x3e882489be4b0edeU,
  0xbdf4d8f2be97da8bU, 0xbe3e3ecf3e881166U, 0x3e42d2713c6b84faU, 0xbd9047a5be0f7318U,
  0xbdc19d163e5c3dddU, 0x3d98681ebdcfbc4fU, 0xbd6b0af9be2899d3U, 0x3e07e2ec3bbe7fbdU,
  0x3e11c58dbdd01837U, 0xbc2875733e76817aU, 0x3ed499cc3dfcdc66U, 0x3dd8cfa83d71050dU,
  0x3de9e2283e4be4a8U, 0x3d0b4a4c3dbcf723U, 0xbd56f1ffbe5ab387U, 0xbd5a6ac2bd9e2644U,
  0xbe29adfd3e852492U, 0x3ede1c28bd9c72a6U, 0xbe681090be4a5e4aU, 0xbec6eaec3e6fd824U,
  0x3e8f9fd6be838f18U, 0x3c0e9784be5d5faeU, 0xbd15ad223ddcc5c4U, 0xbc4407cabd444fe7U,
  0xbe6c7b13bdaad707U, 0x3d72fea1be392e26U, 0xbeda643abda1cfebU, 0xbe1f48623d588045U,
  0x3cd9c6cebc002133U, 0xbc5c8d19bd27356cU, 0x3dbb23023d7e67b6U, 0xbe367a4dbbc72a72U,
  0xbc49457e3d9913d4U, 0xbda04c6ebd77e5a0U, 0xbd29269c3d3dbc3bU, 0x3d5aaaf0bc963d03U,
  0xbdd9a07fbd7687aeU, 0x3dbd5cb23df51200U, 0x3d9979d1be93b287U, 0xbec9d82abdf3ba75U,
  0x3d1a41363e9091adU, 0x3e478abb3e093abcU, 0xbc21f4b73e49a792U, 0x3de4474dbdccb93dU,
  0xbd9055c83d900677U, 0xbba217093e0e93f7U, 0xbd1ee3443cb6f6ccU, 0x3e29b1e13d804944U,
  0x3d82322abdb5a203U, 0x3c45057a3e90a044U, 0x3eaa128e3db3d6f1U, 0x3cf783923c605097U,
  0xbd5f9ab5be495abcU, 0x3da8c5343d769d2eU, 0x3c5bad353d55bc0dU, 0x3e188a463e76ed8aU,
  0x3e0c45f93c255ab4U, 0xbd242c1d3da57a16U, 0x3da6e0e7be469623U, 0xbe5d677cbe1f6640U,
  0x3e069d0a3e192d56U, 0x3dbc374abe0c50d4U, 0x3e16ba2fbc9d07eaU, 0x3dedb724bd95a81cU,
  0x3d93060a3b288234U, 0x3d0b616f3d1a4d9bU, 0xbb995530be064d87U, 0xbbfc93d43e2b27a6U,
  0x3cafc20abdfad40cU, 0x3d9f88d23d090a8bU, 0x3dc8159bbd42aaaaU, 0x3e0e434e3dfe2d33U,
  0x3cc7afd43c51a728U, 0xbd5886f13da33e58U, 0x3d7291ecbc2d82caU, 0x3e28a87a3e20fa56U,
  0x3d91df723e4b112aU, 0x3ca9a86b3e4b6c32U, 0x3dba47b13cc32bb9U, 0xbd14097d3d9bbd7aU,
  0xbd46e42e3d729c7eU, 0x3d43616e3d8b21abU, 0x3ca0ad553c536eedU, 0x3e86754f3c359c1cU,
  0x3e5222ef3d48efa9U, 0xbd4ff8043e4e773dU, 0x3d3e1cbbbe26f24fU, 0x3d84f430bdc661bcU,
  0x3cddcba63e9032e5U, 0xbc4d777f3e656323U, 0x3e02c39d3d679b28U, 0x3d2783503e37d55dU,
  0x3d2f7c63bc996eabU, 0x3d9b6a3a3d0d4f1dU, 0xbd22ba7a3caa0c34U, 0x3e82c8603d85cf8fU,
  0x3e2f280b3e1d87faU, 0xbe267f9a3e459fc5U, 0x3d4a9bea3d5efc1fU, 0xbca2ad42be3a8ed6U,
  0xbe2689e0bd06f007U, 0x3cf750edbbb51b73U, 0x3d10c56bbed166b2U, 0xbe66e4ae3e0959d2U,
  0x3e9f45253da27b67U, 0xbcaada09bc2a7deaU, 0x3e5476413e1d9100U, 0x3e0c71dd3e32b041U,
  0x3e000be43d813975U, 0x3d9a22263e1d3e1bU, 0xbd8d58193e0246cbU, 0xbe0689b23d2bdff5U,
  0xbdbe1256be4ddbc8U, 0x3bad3e25be01aecfU, 0xbd046c883df1d907U, 0xbd4104a73d541f66U,
  0xbc0963ce3da17aeaU, 0xbca06b63bc079152U, 0xbc4dcc503d547ed1U, 0xbd90801d3df33e98U,
  0xbe2806d0be1dba3eU, 0xbe3e1eb53d035b21U, 0xbdc79e93be2e155fU, 0xbddad66b3d91fa14U,
  0x3d9c7f503ba9a61fU, 0xbbf68ea33c01f638U, 0x3ce4bee73da4b4bbU, 0xbcfefaec3dd50097U,
  0x3e6e269c3dc33a2dU, 0x3c04673db93970d2U, 0x3e01cc123e6371b0U, 0x3eaaf21e3a93ec27U,
  0x3d8787473d2e8001U, 0xbd23d26a3df2a90eU, 0xbe3f2852bdc58eedU, 0xbe230aefbe42f4c2U,
  0xbe46e702be9401c1U, 0xbd9870fc3d4e681aU, 0xbd37b95ebe28fab5U, 0x3c080fe3bcac3c0fU,
  0x3d24f4c13d873e4fU, 0x3e730ccd3e10cf3aU, 0x3e954906be19bae0U, 0xbd6ed7383f02fd10U,
  0x3e60f2653e678592U, 0x3e26b1383ddaa4ffU, 0x3d75b6f13dd39401U, 0xbc99f021bcf122a5U,
  0x3e0639913be0f4efU, 0x3ec016063d5aeb1eU, 0x3d51c50d3e927c1aU, 0x3e335a083d8c5d39U,
  0x3e8ac1813d51448dU, 0xbe294d22be10999bU, 0xbc3843553e950707U, 0x3dd867c3bd6febbeU,
  0x3d5a21543d337eaeU, 0xbd8317d03d8b690eU, 0xbe641ffabc041fa9U, 0xbd5cfba7bd3c8d25U,
  0xbda0cf72bda31ecfU, 0x3dc6c0f53e35cbcbU, 0x3f08fbb43d5ffb1aU, 0x3e7953fb3d813920U,
  0x3e323fef3e4bb0b7U, 0x3df798fa3e3fc54bU, 0x3e656311bdcf4a74U, 0xbda88f7e3d6a1097U,
  0x3de7eaa23c0b82c3U, 0xbd071dc63e9b8754U, 0x3e522e833e117a31U, 0xbe1de60cbcf67b8aU,
  0xbccdaa843db2c2cfU, 0x3e1a5b01be897628U, 0xbd98fc763cfd3b16U, 0xbd7ea5e7bd978f4aU,
  0xbddbb677be72fee1U, 0x3d3cdb8abdb5a93dU, 0x3d295a1cbe142e48U, 0xbea37cec3c908314U,
  0x3e53a2523e230127U, 0x3e6b155abe40360bU, 0xbe7df157bcb4d7d3U, 0x3dc454d03ea0150dU,
  0x3e7f0e76bd8a252fU, 0x3e4c13663de1ad05U, 0xbdb6ebf83e5f547dU, 0xbdde413abd556db4U,
  0x3e9d93943db4dd5eU, 0xbd6f6f9f3c61a964U, 0xbe0ac6123dbba668U, 0x3df491d8bda05a1eU,
  0x3b7f9e8ebd017283U, 0xbe019eb63dc6acceU, 0xbd260c64bdb5408cU, 0xbe582014bd61e44eU,
  0xbe1ae0db3d22f0a5U, 0xbdcc85363dd878c7U, 0xbc5e17b93e5ed9fdU, 0x3e68ca73bd118bb2U,
  0xbde7f07b3e1502dbU, 0x3db5863d3e173118U, 0x3e337617bd96d3f2U, 0x3c51e18fbbed7643U,
  0x3da07a373d9e35adU, 0xbcc4b0173d2a39abU, 0x3e82953c3e992c96U, 0xbdb55f6c3d893839U,
  0xbe0f1ec0bb97a7a0U, 0x3d171edfbe211a96U, 0x3d2ad305be50d51eU, 0x3c9eccbb3db00cd5U,
  0x3e09e152bd673624U, 0x3ab4fc193cea0c1cU, 0xbdd5c5fb3ce585a4U, 0x3e261ac3bc660848U,
  0x3e8a81f23ca38bd3U, 0x3de207b03d3f936aU, 0xbc8855353e24e69bU, 0x3dcf292b3d624fc3U,
  0xbe3c0e903e008c27U, 0xbd496eaabcabfde1U, 0xbe08fd9dbe597bfcU, 0xbe7a68943d0c50e7U,
  0x3d825519be2990d1U, 0xbdcdec02bda866f2U, 0xbcd0e10ebe826b60U, 0xbddade12be510056U,
  0xbe5c93ed3de046a0U, 0xbe52e364be228fe5U, 0x3d402202bdf01c62U, 0x3dc0090cbdb9cc41U,
  0x3d8663593e0b7e83U, 0xbc57cc2bbd7b9fdaU, 0x3d90cab1bc3b7eb8U, 0x3e436081bc718369U,
  0xbd73b07c3e641fbcU, 0x3dcddb883e270271U, 0xbe289446bd45960bU, 0x3e5001ae3c0f6347U,
  0xbac9d891bdc2c63bU, 0xbe1702503d56de08U, 0x3e4adbe0bdd86858U, 0xbe177c1ebe55e4bfU,
  0xbda9dc8abc1bd032U, 0x3a889b9c3da028e3U, 0x3da614493d1c0f7cU, 0x39edd69e3df0b859U,
  0x3b56a7a1bd6e9e37U, 0xbdea48d13c70baa7U, 0x3de6879dbe1162c3U, 0xbcbb66f73c07f749U,
  0x3d670b3ebcf961a7U, 0x3dbffa16be01ade3U, 0xbeac63e83da87809U, 0x3e3f7f6d3e3ba798U,
  0x3bc0d198bf095337U, 0xbed7e62d3d167adbU, 0xbe4f1088bbbd07a5U, 0x3c248dffbe6a6459U,
  0xbdee526a3d255fafU, 0xbe4099e73da3e9adU, 0xbe9efd03be5ad556U, 0xbe6ce3d9bed29eeaU,
  0xbe58c5393c28cf5cU, 0x3db3c160bd83d86cU, 0x3d25f0e9be0ecef4U, 0xbc6d23573c7bc72cU,
  0x3cb45c0ebd652605U, 0x3cded51f3c53e148U, 0xbe2599a13dd1acfbU, 0x3df2d4ef3e17c9dbU,
  0xbd1f6424be31d7c8U, 0xbd6f1e8c3dab7d7eU, 0x3deb67eebea258e5U, 0xbf11d52f3e198fceU,
  0xbc8127233d9f3980U, 0xbcda61e6be825a1aU, 0xbe475757bdb8b317U, 0x3d1ff4d23d2c5c31U,
  0xbdd98322be36b6dbU, 0xbe16e2c2be0b5d3dU, 0xbea5aa33bd53308aU, 0xbd3376f9becb1c1aU,
  0xbe163d04be25a1f4U, 0xbc977057bbe69a2cU, 0x3ca42954bd54c063U, 0x3e8f91083e4fa50cU,
  0xbc62f92e3c9aeb14U, 0x3da2d8373ce51f1eU, 0x3d346fafbe36c09fU, 0xbd14cd83bdac9dffU,
  0x3d96aaaabdb0f543U, 0xbe26c0fcbd4a7dd0U, 0x3d84268e3c5df7beU, 0x3df88e7abe71e2e0U,
  0xbda23c913dc5b2afU, 0x3dd019db3d34089cU, 0x3e0ea45fbe0de95dU, 0xbd4013af3d33bf00U,
  0xbe17c663bddd962aU, 0xbe191041bd493f8eU, 0xbe24823abbad642dU, 0xbdb012173d601bc9U,
  0xbd392648bded6c62U, 0x3dcedc0fbdb88b3cU, 0xbd2b49743d49a77dU, 0x3d79f5eb3e829c9fU,
  0x3e8bccc23e37a7beU, 0x3d0a27353dcb2eceU, 0x3d3daab33c8a5fabU, 0x3d2ebb4f3d5b351dU,
  0xbd192d073d484d16U, 0x3d3cf7bcbe0a5f89U, 0xbdfc1f653dfa683dU, 0x3dc6bd4abcc89c48U,
  0xbd4432bcbde6ae3dU, 0xbd7a73e93c5a58b8U, 0xba19dd18be4aa23cU, 0xbdbeb65a3d2ee387U,
  0xbdbf80bdbd494905U, 0x3dd475f83da3417dU, 0x3e13dae0bcbe08d6U, 0x3c0946cd3d82d40eU,
  0xbe917b36bd4fcd56U, 0xbd4905de3d0b4e17U, 0x3d942c333cae796bU, 0x3e48e5b03d5b4bccU,
  0x3daf56edbd0a8cefU, 0xbbeea453bc623114U, 0xbc6781ed3d59a55bU, 0xbc9cd3f7be4a20cbU,
  0xbe7c78d7bc9b3d7cU, 0xbcbf47603db0da8fU, 0x3c8bb5e7be1991f2U, 0xbe451414bcbafdecU,
  0xbe24f4c3be0b3cbaU, 0xbe99a38ebe0a6b06U, 0x3cb2ccebbb1e50fcU, 0xbd77e9e3be4e2434U,
  0xbdf63275bd78b876U, 0x3c7aa9423cb23737U, 0x3e00533e3deae594U, 0x3c09fac53d492d6dU,
  0xbcc98e03be2806b8U, 0x3d9af4003e380243U, 0xbdea9d9c3dd33e0eU, 0xbcb021033d36d2c0U,
  0x3e28044f3c633fc4U, 0x3ced92c1bb652046U, 0x3dcc794dbd56f21eU, 0x3e12010c3dc29972U,
  0x3e1dc2973dac4b6fU, 0xbd74b7013d8226a3U, 0x3c44d472bccdc993U, 0xbe8bc71ebd8f41fcU,
  0xbe3b1620bdd36382U, 0xbdc8df9abe581a74U, 0x3d7fc5e23d553740U, 0x3e24ab243d032c8cU,
  0xbe606afc3d4beddeU, 0x3e0179633da4d7abU, 0x3e3547393c216305U, 0xbbc5aa173c756cb7U,
  0xbd8d38ba3cb3f45bU, 0xbdc97877be563684U, 0xbde00adebe2d27caU, 0x3e0837b1bd39e12fU,
  0xbdc7a01b3cc456f7U, 0xbd82dabc3e1c2c84U, 0x3e2866223c370863U, 0x3e0485963d18ac0cU,
  0x3e1c103a3e5c2a12U, 0x3e5bb0a83e3f7cf3U, 0xbe243c22bdb9245dU, 0xbeb6190a3caac71aU,
  0x3dab8268beaac748U, 0xbeae03b3bea2afe5U, 0x3b179de63e0a386aU, 0x3dd2269cbe1b1762U,
  0xbde3fb03bda49140U, 0xbd0b6a753d1b540eU, 0x3d4391a8bdb2190eU, 0x3ea5f01a3da53e1aU,
  0x3e1c195f3e9c173eU, 0x3e91cbcd3e370b66U, 0x3d7241493c6032f3U, 0x3da8d4a33bcc6c3eU,
  0xbcfdae883e1516a3U, 0x3e87fc06bd34b7d4U, 0x3c1bd3e0be81bd86U, 0xbe5057473e5b9a88U,
  0x3d8a1ffe3e35204dU, 0x3e878b3ebe0a15b5U, 0xbc269365bd2de6f5U, 0x3e0ae2313e4bb14aU,
  0x3d4b69853c42cfdaU, 0x3db68b6e3e55fce2U, 0x3d99ad3c3d603dc6U, 0xbd8869a73c941527U,
  0x3d013533bde27e96U, 0xbe2d43563e51b999U, 0x3ddd247a3ddf8152U, 0x3e1fe9563dbeab31U,
  0xbb9d2811bdfca6adU, 0xbdb010a03deb7ed1U, 0xbe3c52113e911619U, 0x3ed4de54be872f8aU,
  0xbe4fd917bec405a9U, 0xbd68c3783e82cb54U, 0x3e7ba1fb3e2d41f0U, 0x3e60691dbcb18e88U,
  0xbd8e140d3d8019b9U, 0xbd02ab403e93a6baU, 0x3da9b739bbc4b166U, 0x3d9fc291be472686U,
  0xbe6641133e49b588U, 0x3e44acca3e0aa8e8U, 0x3e6af4933e2ebfbeU, 0x3df75c893e526c34U,
  0x3c3435483e295448U, 0xbd2740793dc73325U, 0xbc6017d13e6b7d44U, 0x3cb877fb3c002b0eU,
  0xbe16076a3e4d3a76U, 0x3c4059ebbd15a44dU, 0xbe821f89be6a60a7U, 0xbde3088b3e6f9a24U,
  0x3e872ce1bd2f431aU, 0x3e105c44bdc452feU, 0xbda5ad0f3b3414a4U, 0xbe8ab1463e5c7dabU,
  0x3e588d63be10b869U, 0xbd0c26cfbedd9a71U, 0xbf127f543e371340U, 0x3e4ba10abd927218U,
  0x3e3b2401beeb76adU, 0xbe8d24163d9095b4U, 0xbca79a3d3ea135e3U, 0x3e04dc3fbdbe3353U,
  0xbde8bf553d337c6dU, 0x3d58d3463e4dc11bU, 0xbdb79eaabe6c0f8cU, 0xbe0c7b6ebe319caaU,
  0xbdf8843ebe789143U, 0xbc3fe34bbe5fca72U, 0xbe5510f4be2f28b4U, 0x3dbe16fcbd12289bU,
  0xbdbf3f30bbcc860eU, 0xbebfb3f93dc7b0c1U, 0x3bb2695cbdd87eb1U, 0xbdef3a42bece3613U,
  0xbf0bb8583d3af521U, 0x3d22d0d73d8d33b2U, 0x3e3682a0bedd325aU, 0xbeacc267bd2c2be9U,
  0xbd9f18f13e71c0faU, 0x3eaabc8ebe5831ccU, 0xbde4ee093cf48c3cU, 0xbe357ef33f157f86U,
  0x3eaae3babe2d40cbU, 0xbe33ab34bccee23aU, 0xbdcea601be07bf6bU, 0xbe52bebfbdf00983U,
  0x3d761cd7be5be620U, 0xbd6b0350bdcd9691U, 0xbbef5eccbe2116d0U, 0xbca692b13d0f7444U,
  0x3d4c136a3c35d15dU, 0x3cdff146be008213U, 0xbe1289553dd3a81bU, 0x3dd424153d725785U,
  0x3e149c7cbeb29d9dU, 0xbe5233783dd11ac6U, 0xbdb7a1cdbd7f32e1U, 0x3db3f3373d3e0e0eU,
  0x3edc14f53cd6bffbU, 0x3e3f9eae3d106cd5U, 0x3ecac49c3eaa0e35U, 0x3e949ac23e5df01aU,
  0x3d1eaa193e84ccdeU, 0x3db24eb1be118caeU, 0xbcc58bf9bdb55ab0U, 0xbc30e21d3c707e0cU,
  0xbd441eb03de558c1U, 0xbd92b7123df1b072U, 0xbaae00d73dbe55aeU, 0x3d5e744f3da5c3a5U,
  0x3e19b9983da5a339U, 0x3e10e2b53e12d4b0U, 0x3d645ba8ba49d669U, 0xbda433ab3e209f96U,
  0xbd83cb98b9673777U, 0xbcbfee37bed100cdU, 0xbde0b1fcbe4ca245U, 0xbe220d5cbe0adfa3U,
  0xbde7a3b33e248ef5U, 0x3ed004a33e4a0db2U, 0x3eaaeb0d3da141b8U, 0x3e7662b43f000690U,
  0xbd77aef63ddb7539U, 0xbd2ebee6bc5c2476U, 0xbd8c6208be0d65ccU, 0x3c982f86bd7850ccU,
  0x3c36c65cbb5513deU, 0x3d2329dfbdb3b9c4U, 0x3e0b312a3c917cb0U, 0xba68490fbc8eb79dU,
  0x3dd69c6f3e88bee5U, 0xbc8cf3ff3da4c1acU, 0x3e4fc3503d9bf3adU, 0xbc43f001bdfbe0f2U,
  0xbee01c5bbd767d65U, 0xbe8069f3be1662f7U, 0xbe6712a53df2ca5eU, 0x3e393c97bc9d9459U,
  0xbd681963bda66cf7U, 0x3dd6e3e63e30f0efU, 0x3ed0ee6c3e736182U, 0x3e6ba0593e4454eaU,
  0x3db68c47bd91558fU, 0x3ded7d3abcf90929U, 0xbd1fb597bbe0e154U, 0xbd17f3833e7afbc1U,
  0x3e098f463c8ab9ccU, 0xbc046eefbc4bad11U, 0xbe0f2b893d7bf726U, 0x3e114e493cc22a39U,
  0x3e5bb3573e0b84afU, 0x3dad603ebc7066e5U, 0xbe3cd4b93e0e5425U, 0xbe51c167bdb9f420U,
  0xbe97bf8bbe46c639U, 0x3e3b2330be3014eeU, 0xbe9786fabd5204b9U, 0x3da4d9713e5e55f0U,
  0x3e7f4856be37f62eU, 0x3e3fae9f3e8cf1e5U, 0x3eae14933ec53428U, 0xbe11ef213d7e8d22U,
  0x3b9a894b3e2581e2U, 0x3df847793d3a14aeU, 0x3dc2e93c3d7027c8U, 0xbbe9dd8e3e092780U,
  0x3de95a1f3da3cccbU, 0xbd9d5a493db3b4a1U, 0x3de898e33cdaed75U, 0x3da0b72a3d56a4a5U,
  0x3b6e374f3e2e6891U, 0xbd9f72e8bc9d2780U, 0xbd986bdabe25b4f6U, 0xbd780f06be90ceafU,
  0xbe1e252ebd2589d7U, 0x3b6b206f3e1bda53U, 0x3e877f50bdd4cbc9U, 0xbe19bfd0bd44b61bU,
  0x3e231c2a3e2d0bb4U, 0x3ea54c003e5b0c2eU, 0x3d4bb9c63e71c8bdU, 0x3d5e45d63e19c54dU,
  0x3e1f97f5bdc9deb9U, 0x3da7f00b3d9c9306U, 0x3df4affd3cdbce0eU, 0x3dafeb79bdf24e18U,
  0xbd72f2b23e21cd13U, 0xbd6f4ae6bd3878f0U, 0xbd8851803be0419aU, 0xbd44f8a33e1f12aeU,
  0xbc912e393d8ed5bdU, 0xbe028e80bdebfd0eU, 0xbea05d66bd8849dbU, 0xbdd00d13be1d7e86U,
  0x3ebda9a5be596be8U, 0xbd51d3dabe4da995U, 0x3d74503b3ef4ed8aU, 0x3ec6f730bd300396U,
  0x3ec0a72d3ef3e069U, 0x3de5d6d63e552b62U, 0x3d9c2fcdbde26138U, 0xbb3b7f9e3e717fcdU,
  0x3e285f0a3e02e955U, 0xbd1b9664bd0df606U, 0x3dc35e963e183c9dU, 0x3dbd75b1bd819dc5U,
  0xbcc01f2b3bb254acU, 0xbd584558bda3a026U, 0xbbd3e321be3e53a2U, 0x3d7852533d6f56fbU,
  0x3c56abe43d9be436U, 0x3d4716633d90d461U, 0x3e5d7d57bc1579b2U, 0x3dc487093ded98afU,
  0xbdca357b3e74b4b8U, 0x3e078ebabe35df28U, 0x3dbf33543e02a3f4U, 0x3e6b3f873e06f3f5U,
  0x3de24e223e8321f0U, 0xbd4d81573e1b1268U, 0x3e94a3753cb16ae9U, 0x3df81ad73e8123a6U,
  0x3d9cce73bcb65f61U, 0xbe63d3f03c915998U, 0x3d9822e93dcef075U, 0xbe054dc2bcc4c41fU,
  0x3beae820bda9a39eU, 0xbddeefc1bde06fc1U, 0x3d9277c7bc9f82b2U, 0xbb955546bd2370b2U,
  0x3e87b11b3e689960U, 0x3e7ae3cebc9b2b9bU, 0x3de6d4b23ef4492cU, 0x3e455421bd05af82U,
  0x3df3deeb3c9cb61cU, 0x3e8f99de3bbc74aeU, 0xbe0a65ed3e40d8dcU, 0x3e58d3b93e00e133U,
  0x3e5bc3243e22f06aU, 0x3c0ac12bbe5200f7U, 0x3dae56bf3dfb0de7U, 0xbdcb3a25bd126e55U,
  0xbdd332debe352ffbU, 0x3bd64fc8bd07dad0U, 0x3df7de4f3dbcf82fU, 0x3d917c6dbca1c82bU,
  0xbc3bc948bd3f2f13U, 0x3d4bb7403dbcfe8dU, 0x3e0f493c3e0a9434U, 0x3d25da69be730b37U,
  0x3e8395db3e2fae8fU, 0x3de78bf5bd3c42f1U, 0xbd8d72183d0f96dfU, 0x3e937b463e4e3848U,
  0x3dc8df6b3b2287d6U, 0x3e2792f23e926e17U, 0x3e0f1e0d3dce1255U, 0xbd2211d23c99c977U,
  0xbd6b18c73e2f38b2U, 0xbd477b233d029260U, 0xbc8bdf8ebd9e8487U, 0x3e26bb25bd3b5bdfU,
  0x3cd6378d3e1f3553U, 0xbe283fbc3e422a29U, 0xbded2b273de61a5aU, 0x3df4ac75beab5040U,
  0xbdf1e5c93b0378d1U, 0xbdaf285a3dfa3f88U, 0x3d1df6ea3d23064bU, 0xbdaf20edbd476194U,
  0xbd9b8a063dc74444U, 0x3e64fdae3cebfa24U, 0x3d99cf4bbe022c06U, 0x3c84cc383c07a91bU,
  0xbd2fd5543db71588U, 0x3decb5b3bb7d4ae3U, 0x3e099114bde057bcU, 0x3ddfd4253db51fecU,
  0xbcbfd8413cc58d60U, 0x3c6663d5be024bf5U, 0xbdbf96013e331527U, 0xbeb6d0583e1cfa96U,
  0x3dca50163d9337f7U, 0x3e07f20fbef67b00U, 0xbeadd504bccab6c6U, 0x3d1560e53dcd32f8U,
  0x3d21c4d5be618dc0U, 0x3d387f47be69dadcU, 0xbe186888bcbdcec4U, 0x3dfe879ebe0f9327U,
  0xbca8b3fcbdd2ef28U, 0xbdad7fec3c87828aU, 0x3c852c4b3dac27b3U, 0xbc6fa6dbbe4e7547U,
  0xbd9f870cbc8d341fU, 0x3db1ca71be5ba5e5U, 0x3d77f2473ddc7e81U, 0x3dc47863bdca2ad6U,
  0xbe82d255bde4c569U, 0xbe03044abdcecaa4U, 0x3df6e827bda55059U, 0x3daf4ea5be09672dU,
  0xbcdc00af3e230713U, 0x3c143dbf3d474f8fU, 0x3e61093fbe8d8c1eU, 0xbd7807a6bd89459bU,
  0xbe37ac663e0790c6U, 0x3d91975f3d9173e9U, 0x3d703313bdfd5027U, 0xbe1135633d83a176U,
  0xbbab49f63e681754U, 0x3e57bd44bd8c4d81U, 0xbe16929e3c51cb4aU, 0xbe23ff553dc92195U,
  0x3e5525eabe1a7a9aU, 0x3a0a3343be007cbfU, 0xbd8d0381bbb670afU, 0xbca6b4b4be2b89f6U,
  0xbe0983debe68906fU, 0xbd2788a63d42f3d0U, 0xbd98f6c5bd587e1bU, 0x3d53b1533e0e68bcU,
  0x3da6b0c2bde0eb41U, 0xbdc761f3bd85c358U, 0x3d0f81333defc93eU, 0x3e84c4763ca9a844U,
  0x3e35c5663d536625U, 0x3df997d73d402844U, 0x3d302a2c3d7f8d85U, 0x3e1793a83c8adc72U,
  0x3d5991683dbf55bbU, 0xbd39a0f63e1d862dU, 0x3e920a51bcceb019U, 0xbcba5c4abe6051b1U,
  0xbe12f2b33eba4b54U, 0x3e5176203e1eabcfU, 0xbe657fdf3e132c11U, 0xbddd173cbdb9f11cU,
  0x3cc2d3b5bdb44380U, 0xbd2297cf3dae243fU, 0xbc60e8623d8995d2U, 0x3c2fa1b53de53228U,
  0x3aefabda3c520c42U, 0x3def783d3b3924f2U, 0x3e04466fbc1e8bfcU, 0x3d0d291b3e30f838U,
  0xbcaef6983de655bcU, 0x3e062fcc3beeca25U, 0x3cb39dddbcc2e0aaU, 0x3e39ce863e547762U,
  0x3ea99abebd6cc97bU, 0xbc9366513d3d9667U, 0x3d4964963e90239aU, 0xbb81a8ec3dbf5fa8U,
  0x3d0ae56fbc81b007U, 0x3c98619d3e0ff2b1U, 0xbc5e9bc8be0b73c8U, 0x3ce261a2bd523965U,
  0xbe143b1bbd87c5a3U, 0xbd45d14abdd75c19U, 0xbd8d6a1e3d6223ddU, 0xbdb87da33991f763U,
  0x3d6927ad3bdef129U, 0x3df17a85bd9b97f0U, 0xbb3a6dd43dfccf3cU, 0xbe1ed2a83dd35c4bU,
  0x3e12d7373d54c745U, 0x3dfcab04bd7d4010U, 0x3e532eacbcba6875U, 0x3c85a7b33ca66e21U,
  0xbdadcdd63e8a3312U, 0x3d95f6f23e169854U, 0xbc474390bd1bb005U, 0xbe5b769a3dee7202U,
  0xbe0feb403e06937cU, 0xbd57347bbddb9671U, 0xbd279ad03dbb7831U, 0xbdd0a352bd48934aU,
  0xbdb6e9293b5bc1f7U, 0xbdf9e5dfbd496ca0U, 0x3defb6a03d205cd9U, 0xbd60f67cbd86746eU,
  0xbe3ee3323dc04f93U, 0x3cd0ddb2bb5b1695U, 0x3e050aacbdfb7a61U, 0x3da8fe0b3c23094bU,
  0x3e2184fc3ddce7c8U, 0x3e1e14ccbce4402bU, 0xbdfae6373c55bf56U, 0x3dba21aabce04a51U,
  0x3d8a7a9abdf827bfU, 0xbd21d4dbbdd5738bU, 0x3e67d329bca1516cU, 0xbe3ce0dcbda174a1U,
  0xbe19c12e3e00cd91U, 0x3db227d2be062fa9U, 0xbd87909b3ca5efd8U, 0xb93072cb3d82f0aaU,
  0xbd545779bdb167b9U, 0xbd278ede3ba94ef6U, 0xbd91f1143d81bf47U, 0x3de7a143bdb92c03U,
  0x3c9f27eebdee9b4fU, 0xbe090b9b3c8350cfU, 0x3dffa61dbbe49133U, 0x3dcbff773e1d81fcU,
  0xbcc157273e259380U, 0x3df920423c9d54b6U, 0xbcab2ecbbc0f4df2U, 0xbdc68904be4deaa9U,
  0xbd37aceebcb3b3e0U, 0x3d6f12e83ccffdd2U, 0xbe2f0821be907b5aU, 0xbea0a7fabe144ff9U,
  0xbe0a5ff5bdcc60faU, 0xbdeda769bd0a0f7fU, 0x3d7a8690bdea5089U, 0x3e1b8498bc2282c3U,
  0xbdb41a683dfd1853U, 0x3dfcbfc73c74b959U, 0xbcb45d3bbde243ffU, 0xbd855ced3e067abbU,
  0x3ce24644bd7920fcU, 0xbe17fe11bd43dd04U, 0xbc3805203cd8df5cU, 0xbce2954abc8f9d35U,
  0x3db5fb053da3fcb4U, 0x3c84bb0cbe178b5eU, 0xbeca1a283e4aa982U, 0x3e3234fdbbba58f9U,
  0x3c406393be011ed9U, 0xbe47d9413d8f3c0aU, 0xbe06210dbe16c4d5U, 0xbdf72d04be0391ceU,
  0xbd844520be416538U, 0x3ccaf03abdffe847U, 0xbc375e3fbd8c4f84U, 0x3e57f427bd70f5ebU,
  0x3d5613efbd0d25bfU, 0x3d5935a73e875168U, 0x3ebfd3673cc30d10U, 0xbe059045bd8f43aaU,
  0xbc37a8593e635629U, 0x3e0292783cec067bU, 0x3d18197f3d9fb799U, 0x3d97acbe3d2ef87cU,
  0xbdbe4eaf3d93ff6fU, 0x3d58ad913ca3ebaeU, 0x3d22ba51be8ff6fbU, 0xbe30ea443dcce5deU,
  0x3e182c4bbe1faff6U, 0xbe475bd9be8833ebU, 0xbe621668be309e94U, 0xbe067e74beb0afb9U,
  0x3ce850a23b950fbeU, 0x3d8e8d9b3d4ef27dU, 0xbc27b3febe050750U, 0xbccf50ef3e2bdd86U,
  0x3e8c9a51bcd20017U, 0x3c48f0b3bd824244U, 0x3c5323b43e25325eU, 0x3e6696a43d392eb2U,
  0xbd58b5f1bc95fb4aU, 0x3d28cb893d06cd52U, 0xbde9cc063c55c7e8U, 0x3daa43923d70fc82U,
  0x3dd06a10be36e53dU, 0xbe7d1d293d14eaeeU, 0x3ca602d1bcda1bc5U, 0xbe215b94bd5d7747U,
  0xbcfdffa03d19e060U, 0xbcdbc798bc871247U, 0x3d1924753dc14517U, 0xbd114660bdd4e46bU,
  0xbde98e893cb9ed21U, 0x3da8a6423ca58ae0U, 0x3e2d40dabb01f8b0U, 0x3dc031283e02985bU,
  0x3dd9cf74bc27e237U, 0x3cce08503cf68634U, 0x3d90440d3e1330b6U, 0x3e4563ff3b382ddbU,
  0xbd85d1e83d730211U, 0x3dab33e83db5641dU, 0x3e1b4aaabdaf7867U, 0xbdbb56273c6224c8U,
  0x3bbe213bbe08545dU, 0x3ddf0891bea088d8U, 0xbe494f6d3d092fbfU, 0x3d5b85953d68ad35U,
  0xbd87f5a4bc7baaacU, 0x3e51846e3d3de31aU, 0x3e2e8fa9bda6712aU, 0xbc9075ce3e508569U,
  0x3e0ec2f83d4e2abcU, 0x3da896833e1e89c2U, 0x3e0e9b0c3c123a61U, 0x3c8970a83df2200cU,
  0x3cb400a33d596b4dU, 0x3dc7659abdf52d83U, 0xbdf78f64bcd3d49aU, 0xbdbfeab93d1def4cU,
  0x3ed346bdbd8716b0U, 0xb9dfb1af3e09d55dU, 0x3e3bf2ee3d6bdad6U, 0x3db67f9cbc9c0d8dU,
  0xbdbd354a3e3e493eU, 0x3da6776abdaf3588U, 0xbd8e8205bd9bc68dU, 0xbdd867f63cffc335U,
  0x3e088a7abd3bd23dU, 0xbd9051973e18ef3fU, 0x3c0c171ebdfc5312U, 0x3d6b22e2bd987df3U,
  0x3d809665bda92a19U, 0xbe06965a3c97d0c4U, 0xbe5d8684bdc21a20U, 0xbe6870eebe75a781U,
  0xbe225d02bda3ab4bU, 0xbe00504fbdd3a7cbU, 0xbcd56b34be89ec5aU, 0xbea616f63d4c48bfU,
  0xbcdd11cc3dab5adbU, 0xbcf4ae9ebe734db2U, 0xbd3e5f963ea82fc8U, 0x3ca9426a3cbb206bU,
  0x3d6049dc3cabe054U, 0xbe27362b3defe869U, 0x3e2d3f3f3cf3bd48U, 0x3cb0c5a43e0ca4aeU,
  0x3cbe94edbd0e363eU, 0xbdc07e613d57b41bU, 0xbcb5b08f3b0de63fU, 0xbe125647be034369U,
  0xbea248a1be525cddU, 0xbe42afecbe32ed83U, 0xbcf23e32be1226eeU, 0xbbbdebf2bd1fa1e2U,
  0xbd9b022d3da2e23bU, 0x3dc183b7bba1a9fdU, 0x3d3d40fabd9a399eU, 0x3bf9e09ebe021651U,
  0xbe157bb83c0f81a4U, 0x3de54a7f3c032372U, 0x3e054994bd995df8U, 0x3e21989c3e41ab8eU,
  0x3e2bce623e13d743U, 0x3e2dde293dbeeee6U, 0x3d1e109a3d8a7937U, 0x3e617dea3defdd50U,
  0x3c024396bcef0867U, 0x3b9833d2bd41352cU, 0x3c2a09ba3c2de759U, 0xbdd76b96be20b465U,
  0xbe1e97a9be8c3a16U, 0x3d1a3451bde1d93fU, 0xbdd51efbbe8c7e79U, 0xbe7f54a1bdc49760U,
  0x3c10f8a83ca4c779U, 0xbce12a2cbc9c491aU, 0x3e2bf92fbcc4bf81U, 0xbd7e030c3bac7b0fU,
  0xbbef029b3e5e29f3U, 0x3e7415f5bc8ee697U, 0xbccae2753e2b5f79U, 0x3e18ec503e924fe7U,
  0x3e744f2a3dcc9f7cU, 0x3e21ceed3e7c691dU, 0x3e316fc83e57475fU, 0xbdb141ec3ea8719eU,
  0x3de474a43d84a266U, 0x3cc5e6fbbe2658edU, 0xbe33009bbde551cfU, 0xbd402561bdd7d060U,
  0xbe3bf7dabe2e10f1U, 0xbe75306cbd2e0170U, 0x3e1d8895bdd78602U, 0x3d39af48bdb6ebdbU,
  0x3ccf5c053e55188fU, 0x3ccac4a13c98eb83U, 0xbd85851c3cf4c75cU, 0x3e97dfd1bd1384bcU,
  0xbc660b39be02dd2fU, 0xbde055903e48248eU, 0x3eb140babcd482b3U, 0xbe08b8bb3dfd37a6U,
  0x3dc41bee3e2e1beeU, 0xbc339f97bdb1a81cU, 0x3e62eb0b3e6a9fd4U, 0x3e2bc4823e80d60eU,
  0x3df66e27bd5a42a4U, 0x3c0349443dc118d7U, 0xbcac8614be675663U, 0xbe9184fdbd0a2f20U,
  0xbc417b60be29734eU, 0xbdf7f6ffbe4903a4U, 0xbd8696543dc98247U, 0x3e4efeeabe405420U,
  0xbd3dc6623e3a23abU, 0x3e77607abc9997b8U, 0xbe3bdee2beca750cU, 0xbe12e8903e805721U,
  0x3e8a193cbda8ca81U, 0xbdad893dbe63ed95U, 0xbe34f45f3eb4ac1cU, 0x3e0abc84be3e43a4U,
  0xbdb6bd1ebd133f0fU, 0x3e2c53703daff4c2U, 0x3d7414a73dc9c420U, 0xbd9e27323de83b68U,
  0xbd833f393e812385U, 0xbd58eb423ba4e8d8U, 0xbbe52c20bd2abcabU, 0xbd628745be2fb1c5U,
  0xbe3e80a93d3c10e7U, 0x3dc7ea9dbe05dce5U, 0x3c80861ebc0623f2U, 0x3e10274c3e0ec39aU,
  0xbd989eedbd9d50eeU, 0xbe833203bc4581cbU, 0x3e8f5adabe4e0cdcU, 0xbdc624dabc409d6aU,
  0xbe0162993e7f2d35U, 0x3e462deebde14c9cU, 0xbdea3380be279b62U, 0xbe92ef7c3e1f3a71U,
  0x3b035e97bd69de26U, 0x3e4c47c13dc4a2b0U, 0x3e3c63773ee3ad2eU, 0xbdabcdbbbd8ec042U,
  0xbd11f62cbd5e2a8eU, 0xbc852628bdb6f577U, 0xbd0d638a3e0e47ffU, 0x3de0f862be1037dfU,
  0x3db01bcebd52cb88U, 0x3dabda243e4130fbU, 0x3ce852093e0da746U, 0xbd6499703e13b003U,
  0xbd9e7db53cf0dd7aU, 0xbe0977eabc1b0c33U, 0xbe0c28c7bda12a4cU, 0x3e0965cebe23bc27U,
  0xbe80f4ccbe8c5368U, 0xbe3182bc3d44a2b0U, 0xbe550873be8b0348U, 0xbe20bfd9be7f1ffdU,
  0xbdb2dcaebe6006c7U, 0xbcfcb957bd70bd9fU, 0x3d10b7233c89c213U, 0xbd8f3d80be49bae8U,
  0xbd92112fbe04096cU, 0xbdaa1c2ebcf9d1abU, 0x3da83429bb80b380U, 0xbdeb92e03dc62821U,
  0x3e42c9763e37dc8bU, 0x3deebca4bdc7915eU, 0xbd99d2f73dca2576U, 0x3cc8e9443d62a190U,
  0xbc8fcadfbcc31a2fU, 0x3e1474e6be60a9f6U, 0xbdcf6df4bce476a5U, 0xbe64c6cb3e66a6ebU,
  0x3d3c67b9bdb1dc91U, 0xbd15c0ee3d9c64a7U, 0x3d8df4d2be2db8eeU, 0x3d14df873cf488b1U,
  0xbe07eaba3e2a3791U, 0x3cc97a0d3d3dc3ccU, 0xb90a03a9bda12e48U, 0xbe00f35a3d06615eU,
  0x3cd1d6973afd4b85U, 0xbe252704bce8cfe3U, 0x3e071dca3e2d6ad2U, 0x3e5455c33b640365U,
  0xbe219a503de9d6b6U, 0x3e1fe42c3e6e2f2fU, 0xbc8047abbe128ce8U, 0xbdccedc2bc8f6bfdU,
  0x3d30669ebdcbb672U, 0xbda6bf103deb7fd7U, 0x3e0071f23c87c300U, 0x3c6d30aabd03b739U,
  0xbd6f68ce3e47a897U, 0xbca224b53ac782b3U, 0xbd8a4afc3d0c25d7U, 0x3bce1bfa3d5d04b7U,
  0x3da9b0983daa17f6U, 0x3dc234033d68992eU, 0x3c82def03e0f769dU, 0x3cf75990bd9e3ca4U,
  0x3a9fb8b8bdbeaac8U, 0x3dc16b60be252cc7U, 0xbe3539363db45707U, 0x3d9c89a23e018fb5U,
  0x3e81372cbea6dd6eU, 0xbebe275f3d69c7a6U, 0xbd7ac1663d903decU, 0x3d9bbd17bdedcdf4U,
  0x3e1bcc353dcb9ae8U, 0x3d3d30803d09898bU, 0x3cdeb12e3e300b8dU, 0xbdf7d7153d34d787U,
  0x3e391b43bd81eee6U, 0xbdcc6871be916958U, 0xbe2776873d8720e8U, 0x3da3a490bdf9ff4dU,
  0x3c56e8363e0b4b7bU, 0xbd11ecf3bcdd0f3eU, 0x3cb4125cbde4d54dU, 0xbbaddc14be0fa6edU,
  0x3d2bcea1bdb33b87U, 0x3d7ee10d3b6028a3U, 0xbce6c306bc630500U, 0xbda0f875bd3f0b72U,
  0xbd6ad3b03dbf1038U, 0xbd89c60fbd219e6dU, 0xbe320c653d32dba5U, 0x3dce3a1a3d99384cU,
  0x3e01f6bb3e4505e7U, 0x3dbc07093c79ee35U, 0x3dad031f3d0e39b9U, 0x3dbba1c8bd01ef98U,
  0xbcb2606c3e46409cU, 0x3e1b532abe527ed9U, 0xbe34ae353da12702U, 0xbd1128e83dbd942fU,
  0xbd928462be245f15U, 0xbd6290ae3da6e3d0U, 0xbe12f7e5be3a8cceU, 0xbd31abe53bc7f1bfU,
  0xbdb16f66bda46ec6U, 0x3cd4ccaabd97ff39U, 0x3d2205c8bde93f5dU, 0x3db548d0bc420d58U,
  0x3d79c3363de966e5U, 0xbc8328e0be3417cdU, 0x3dc0b222bd9cfc82U, 0xbd5ce55fbd753454U,
  0x3d477f853d9bdcb3U, 0x3e8edb0bbe56a5ddU, 0xbe223de03d980482U, 0xbd50004fbd3155b4U,
  0x3d97d777bdaaedc5U, 0x3e353e973d974178U, 0x3ddcad74bca1954aU, 0xbdc8b325bce76854U,
  0xbdbc78f0bec0d766U, 0xbe1cf874be49cf6aU, 0xbda82d5abce8860dU, 0x3da89ddcbc339b3fU,
  0x3dc215b7bdaf0501U, 0x3dc81f41bc92bc43U, 0x3d2bca093d7b6435U, 0x3e12f74d3d5ebf80U,
  0xbdd7592ebb1b09a9U, 0x3d572a9d3dc4879dU, 0x3bea08643d15dcd4U, 0xbe28b1f03dfe86a2U,
  0x3c5c2acebe122490U, 0xbdc3d906be2f66ceU, 0xbd5abd48bdbfa942U, 0x3d07eb56bca97d83U,
  0xbb5a79ea3d2a86cdU, 0x3d43f6efbd2378b2U, 0x3dce722e3d8c256eU, 0xb8bd4fae3bb44c55U,
  0xbde309dabe294cc1U, 0xbe33e5b13bc469b9U, 0x3dbc73a8bc262ecfU, 0xbb324b623e80af7eU,
  0xbe58b147bcb40dedU, 0x3d0ce13fbdc827bcU, 0x3de7ae5fbe491abeU, 0x3e5b5b2e3c73bd77U,
  0xbe41109d3dbbbc3fU, 0x3e02e3a8be57ff4dU, 0xbe038b183dfa1ce9U, 0xbd11a04c3da42583U,
  0x3d9e3667bcd34f61U, 0xbc1a15d8bdf40ee0U, 0xbdd260633e16e359U, 0x3d488ccb3d8c51b1U,
  0x3e5c63613e352a4bU, 0x3d0807533e28a937U, 0x3e223f513e7a0988U, 0xbe1ac3dcbd25a66dU,
  0x3cda7e253c83b458U, 0x3ca5f829bdf898deU, 0xbd0ed88cbdc15fe7U, 0x3d8a40cf3d6258bbU,
  0x3e225d183c843e31U, 0xbd357f8c3d340bf3U, 0xbc349b643d821fdcU, 0x3d308be4bda539c0U,
  0xbdf043bc3b866864U, 0x3c4736e1bca099d1U, 0x3e03d836be3af082U, 0x3e2c1340bd5588ecU,
  0x3dd13f723e2f8417U, 0xbcc241b3be310f38U, 0xbdc3104b3d31c4e5U, 0x3d7743613e33da1aU,
  0x3e25ad633db18694U, 0x3da017853bdcb232U, 0xbda3fae1bc8a14eaU, 0xbde0f8d63c301763U,
  0xbdecc0b63d41a066U, 0x3cc1b3223cdff040U, 0x3cdf90e6be09bac2U, 0xbde3a3623db7c766U,
  0x3dc63367bb7652a7U, 0xbd44a100bda1160cU, 0x3c4fbef93d745de5U, 0x3c7140f6be031d47U,
  0x3d4d460a3e13db2dU, 0x3d383e4dbd17f040U, 0x3d82501f3e16d21fU, 0x3e0bfb74bc224293U,
  0x3c0688733ca2a88aU, 0xbe07e6663e6399fbU, 0x3e0cdfce3d3fabcfU, 0x3e1c23a33d3eab3bU,
  0x3e12e3b03e4d1f94U, 0x3e92e9e73e3bf0cfU, 0xbe26b072be5999cdU, 0x3de79a5f3bf03216U,
  0xbc1f1523bd77033eU, 0xbd274580bbcc3cceU, 0x3d57365a3cf70c01U, 0x3dffac7cbdd07a82U,
  0x3da4a9113d027a29U, 0x3d9764b43c48afedU, 0xbc03f9e0bdd11766U, 0xbd6041f53d9daccbU,
  0x3d752a8bbdbb1eaaU, 0xbde1a8e03dbed747U, 0x3bff1c663d4999e0U, 0x3d4d4f23bc2c4f5aU,
  0x3d3c43e03d2573feU, 0xbb594289bd6c68dcU, 0x3d2070933d968d8fU, 0x3e6d93143dd8ce21U,
  0x3e4efed83e7e27dfU, 0xbe0a0dfcbd2334d7U, 0x3d0619d9bd5dd49eU, 0xbd9e1eb4bd0a49a4U,
  0x3dc24fb33d3fb29eU, 0x3dc44136bda9288cU, 0xbdb57ef33dc95a4dU, 0x3e050675bd4dd844U,
  0xbd1bde9dbe2c1801U, 0xbde4bb653ddf4a62U, 0xbdee6edfbdb9f468U, 0x3b5afab2bc54e92eU,
  0x3c2d7f81bdf32693U, 0xbde816d4bdf23f8fU, 0xbdeb542a3e0accaaU, 0x3e7fefbbbde40608U,
  0xbe1c6b3cbe866929U, 0x3d6387ae3e8809cdU, 0x3dde16bb3d7604d5U, 0x3e05f63d3db70173U,
  0xbd6e1b983e74eabdU, 0xbdbe3152bd40a25eU, 0xbc868acabd1bedfeU, 0xbd33d551bcc80ffaU,
  0xbce7d2a13da29cb2U, 0x3cf2b9c9bda2e063U, 0xbda4a201bd6b7bf4U, 0xbe10da013db0ea35U,
  0xbd8e3cc2bdc14c37U, 0xbd1f782dbe6fd679U, 0x3d3819dd3c4750b4U, 0xbe4bd4f13e0404afU,
  0xbd5d50b43db7688fU, 0x3eb0abacbe0efe09U, 0xbe5f52f3be888918U, 0xbe3f307a3e0b0b0eU,
  0x3e3b7750be32f358U, 0xbddefcccbe26e8e9U, 0xbd5b28803ebaa7d6U, 0x3ec29848bb4f84b4U,
  0xbe41307ebdf0d7acU, 0x3d8b1de7be123c41U, 0xbc01f861bd27013eU, 0x3c6babacbcbd8d25U,
  0xbdec8f383e24d480U, 0xbd3400d4bdbb0a03U, 0xbd5f1999be889b81U, 0xbe5d38243d9028b8U,
  0xbd89a09dbd1d3c7dU, 0x3e09dd2ebe293955U, 0xbe28d9073d83161bU, 0x3e048bfcbaab9ba9U,
  0xbd231bf13cb2d8dbU, 0xbdd7f6853e48c4a8U, 0x3e168698bdfbea37U, 0xbd062162bd981a1fU,
  0x3dc7c89c3dc8d66eU, 0x3e71f753bdd616f9U, 0xbe4f61b23d05a14cU, 0xbd1e86903e72cc66U,
  0x3e91c8b6be5d0c16U, 0x3cbbe6573e00dddeU, 0xbd62acfb3e356e6dU, 0x3deaf5c5be22e76dU,
  0xbe456351be45dfdeU, 0xbe4fa6c83e877919U, 0x3e454dd1be170312U, 0x3d3dfaf2be68a208U,
  0xbd9c71373e455c9eU, 0x3e520ef8bdb3cc58U, 0xbda7abdabde1f8e6U, 0x3c73b0a73db429b5U,
  0x3d6f2ccd3e14c2aaU, 0x3d4dcd31be10718fU, 0x3d22cf07bdbab938U, 0x3d018f543d717944U,
  0x3e0a23c53d53f292U, 0xbdfd58dabeb63313U, 0xbdffbeffbe412687U, 0xbe6e93353cbb90d0U,
  0x3dc60fee3b169454U, 0x3e11ddb1bd85738aU, 0xbc58034ebd265396U, 0xbbbfa21e3e59d654U,
  0x3e8d0dbbbd71a9beU, 0xbcabcd3ebe0a9feeU, 0x3c770c153eac2bcaU, 0x3e95310cba647663U,
  0xbdf69f6fbd6ed1bbU, 0xbd9d63e03e227942U, 0x3d83b1a93d5b3f58U, 0x3d5a19f13dec0803U,
  0xbcc0ce093da057f0U, 0xbdbd4eb43de44cc9U, 0x3e27b0063dd304c5U, 0x3d971e52bdf7443aU,
  0xbd9515d03dfa7ceaU, 0xbdd811863c4d5eaeU, 0xbdf254f23d6af08fU, 0x3d8a7d57bdedede5U,
  0x3db1a57a3d8b5005U, 0x3d4efb303e03e04eU, 0x3eb4b4af3d1882ebU, 0xbc987a22bd9833e7U,
  0x3e0723453e2e6445U, 0x3e4070653d3f5bb0U, 0x3dffdda9bc07c5c1U, 0xbccf27e93dddf650U,
  0x3dda12063e305d6cU, 0x3e37cf903c9a3cdcU, 0x3d22476cbd6d4522U, 0xbdd5b0353ddad8bbU,
  0x3d3119193d2216e5U, 0x3dc8c478be7c7834U, 0xbe8741583e1e1e1aU, 0x3e336d3b3d61b840U,
  0xbd3857f2bdb6ee6eU, 0xbe26099d3b5c8a03U, 0x3c52a380bdfa44abU, 0x3d8309703d872ed1U,
  0x3da1084f3dbf0717U, 0x3d99ecc7bb4809a2U, 0xbcdf0dd43e630248U, 0x3e36ab17bd04fd3bU,
  0x3dc82f933d6acc42U, 0x3e0bc1e13df732c9U, 0x3e0aba45bdcc3eeeU, 0x3e1376853de8b4e5U,
  0x3ca46ca0bd8f6e97U, 0xbe38aaf7bc9aac9cU, 0x3d05fb03bcf129ceU, 0x3e197d87be35905dU,
  0xbea729853dc20d10U, 0x3dfbd9f53e356d62U, 0x3e928f6dbe628628U, 0xbdcbf99a3e4b6e68U,
  0x3e395f5bba62a0e6U, 0xbdd1d1c1bddd00f1U, 0x3e0486f73cd887c1U, 0x3da6a4fb3e2acaf0U,
  0xbcab4324bd5e7840U, 0x3d5c229c3d9451b1U, 0x3e11f76ebab1fc45U, 0x3e202e1d3d3ba93eU,
  0x3dca44573daad8edU, 0x3d3924113da212fcU, 0x3da3b93c3d63e135U, 0x3d825be4bd1b92b8U,
  0xbcb9273cbc26c405U, 0x3d1c3d87bdd2ff2aU, 0xbde9abaebe0f3a40U, 0xbd4f0e563c5157d2U,
  0x3e0fe185be3e2effU, 0xbddd01a43e2fd575U, 0x3df3f9353ed2001dU, 0x3d33bb98bdcec8bfU,
  0x3e28556e3dfb48beU, 0x3e1d0be4ba3fcf4eU, 0x3d6397bc3dea749dU, 0x3e033ef13e5b739aU,
  0x3df45ba4bc7b8938U, 0xbc1eb1ca3dace72aU, 0x3e3867da3e1f20dfU, 0x3de204e7b8c5d238U,
  0xbd10b5663dc785eeU, 0x3e1151763df616b1U, 0xbd8c3f76be1baef3U, 0xbe92e0f53c176e72U,
  0xbd10f3acbc9d4839U, 0x3dd6871bbe4f48c9U, 0xbdb73809bdea22f1U, 0xbd5ec70b3d6b8186U,
  0x3d967a6abe22b022U, 0xbd46dcfebd4e0da1U, 0x3d8c4fe23e1e3b60U, 0x3e52367bbe4da8a4U,
  0xbdc050113e381abcU, 0x3d070b2b3ddf085aU, 0xbd397cfcbd3ad8ecU, 0x3d5a20e13dc48a4eU,
  0xbcb3a5bc3d84ed02U, 0x3da64d6a3d3b1691U, 0xbd3f4cfdbe0ca6ceU, 0xbcdde0d4bd6106adU,
  0xbe0bd143bdaf1c57U, 0xbea5735cbdc67655U, 0xbe14b5e1be9ba774U, 0xbcd6ffdcbd86ff5eU,
  0xbdce3196beafc8d4U, 0xbdf28062bcfa37e7U, 0xbe7f78bcbd67ee51U, 0x3c7ace103dabff67U,
  0xbe26b1a33cb8c5f6U, 0x3e342a40be3ee987U, 0x3dc001903db0e9faU, 0x3decbdd63d115f3fU,
  0x3ceb58ab3dc38859U, 0xbdcbf46d3cdc98f9U, 0x3da8b8debd347c22U, 0xbe11e092bc082ed4U,
  0xbe6563f8be22c10fU, 0xbe8f32b9be170382U, 0xbea3c705befd7f42U, 0xbe8b7d64bf19ae3dU,
  0xbeae1f88beaf12f1U, 0xbf0d4a42be91e585U, 0xbe451a21bec135c1U, 0xbe2712c03cc71c24U,
  0x3df85fb93d311f5dU, 0x3df733a03de9cff1U, 0x3e6cad39be0f6dd9U, 0x3d411da33d72fe81U,
  0x3e03daca3d93e1cfU, 0xbe0d0316bd14712dU, 0x3cefdece3e29b8ccU, 0x3c8c35023b1713d4U,
  0xbe0065c9bd658a33U, 0xbe0e5abfbe510273U, 0xbe808278bcbc9259U, 0xbddface2be45ba92U,
  0xbe8cded3bea54ca2U, 0xbe5020c3be80346cU, 0xbf0c9a06beb0990aU, 0xbe4742f0be0de65bU,
  0x3d7fd9ecbf6262eeU, 0xbee11ac0bdf518fcU, 0xbe291b7e3e6571aeU, 0x3dbf68883e68aa15U,
  0x3d8dcd1cbe092f8cU, 0xbe0eded5bc4d4a98U, 0xbdba94663e50b4a5U, 0x3da0359fbe3d3939U,
  0x3ce7ea2039a6242bU, 0xbd2a2054be5bfa71U, 0xbdb27bd8bcacb396U, 0xbdcc5ec6bdd0a38bU,
  0xbe46d8eebe46fe37U, 0xbe227f15bd852b59U, 0xbebba82bbe81e014U, 0xbe7ecd6bbeb160eaU,
  0xbf588949be3eed97U, 0xbe301f83bcfa54beU, 0x3de86f8bbf5396d2U, 0xbf1658f0bde99fbeU,
  0xbdd047223d4bfaf9U, 0x3dc5e4683c2f7409U, 0x3e57d0463d120ce8U, 0x3e1c7630bddeaaadU,
  0xbe4fdcc63e84c26aU, 0x3e0762ed3d80fa09U, 0x3bcb4be8be208071U, 0xbe1175973e04dce8U,
  0x3e0cdbd43dd2dd38U, 0x3e09d275bcb95bb7U, 0x3c6be8e9bdcc8ebbU, 0xbeaf39d2bb06069fU,
  0xbe1394473cfe0ccaU, 0xbd1e378abe970356U, 0xbed36e9cbe8c0fabU, 0xbdf07e5cbd9e085aU,
  0x3d936003bf053bb9U, 0xbe9185f6bdced6d9U, 0xbd0e21e83df2fabdU, 0xbdc5de82bdc17662U,
  0x3d8cf4b4bd8a579aU, 0xbd5fe5973ccfbacfU, 0xbca71edf3e2094d1U, 0x3e7dec24bd2a2752U,
  0x3d812156bd9714d1U, 0xbd3de2a63dde6015U, 0x3e647c563d3b5b41U, 0x3db3052bbe7e3972U,
  0xbd24173c3df4307eU, 0xbd2fd0ae3e298aacU, 0x3c3e2d89bddf5638U, 0x3df9702ebd0da0b7U,
  0xbe69d9c3bb34631bU, 0xbdfc6735bda510b7U, 0x3d5ce708be47a267U, 0xbeb5019bbdcb3e4fU,
  0x3c127df23d5fd445U, 0xbdfdc107bdb77760U, 0x3d6308c2bdc765a4U, 0xbde70505be0cdd19U,
  0x3dacdc4e3d294c06U, 0x3dba11693d38cfc6U, 0xbd9c6e7e3e3757a8U, 0x3d15786a3de80b6aU,
  0x3da6b907bc866c17U, 0xbc8c10073db2104bU, 0xbe1d89fd3d8b9bd1U, 0x3da78eff3ca232d4U,
  0x3e3e7c78becaa337U, 0xbe3c445ebd4354deU, 0x3d61ef4bbd84f0a7U, 0x3c6ca9233e3c7651U,
  0xbca3a275bd79279fU, 0x3d4db8593d56a7baU, 0xbd470fe93d8ac954U, 0xbcc83322be2d7ccdU,
  0xbe24e8c23d2e6de1U, 0x3d6322e5bd9b7a0eU, 0x3c6f2431bc1467d8U, 0x3d53e6213d65b57eU,
  0x3d1731203da10125U, 0xbdc49ac5be5c3e2dU, 0xbe7ec7fe3dcc0c39U, 0x3e1f609dbbe4c566U,
  0x3e0ed0b7be02ec97U, 0xba880ff23da8c85cU, 0xbe238175bd9cac2aU, 0x3dba7cc73d3af2a5U,
  0x3e439900bc7bf0feU, 0xbcc8128ebdc2aad6U, 0xbb4163b63d47f892U, 0x3ccf0066bddbdb5bU,
  0x3e5340d73d8aef00U, 0x3e04bcd73d66a9a1U, 0xbd848f6b3ce20691U, 0x3e23efa7bde7beffU,
  0xbd2d24073d679571U, 0x3e6265863e3c3191U, 0x3e1623b5bd52de5cU, 0x3d1dccf53e7d75f2U,
  0xbd2812373db0b291U, 0x3d11487bbe05956aU, 0xbd8317c8be9d4efaU, 0xbe1ac96cbcfd41bcU,
  0xbdee7726bd60c23eU, 0xbda2c582be07e3f7U, 0xbc089297beaa30e1U, 0xbe8948a53ca4a2c3U,
  0x3dc914fb3cd3f753U, 0xbde7c46e3d9ce18bU, 0x3db667c9be0feffbU, 0xbc16221e3d82afc8U,
  0x3e3259c33e993e19U, 0x3e4a15693cb6e4bbU, 0xbe29b9333e580f96U, 0x3e7c5ee23e126521U,
  0x3e0ededdbd544e26U, 0x3bec62f73ec072cfU, 0x3dc588983d3c03e4U, 0x3d1cc9463d3279cdU,
  0xbe1f3513be113a2aU, 0xbe97781e3d867288U, 0x3cab6abfbdd4cbd3U, 0xbdd9c4f4bd4dfc68U,
  0xbc865ff5bd333b61U, 0xbe0639a7be1d2d9cU, 0x3dcf4504bdb8e34eU, 0x3d9041c3be836c85U,
  0x3e3d4e423de0a4b5U, 0x3cdffc06bdb77fa1U, 0xbd4758863aca92a6U, 0x3e1ccd3bbc9dc1cbU,
  0xbe17be2e3d90d119U, 0x3e9345fb3d973a30U, 0x3e018e873d59575aU, 0x3d18777c3e39bd38U,
  0x3e255c7f3dab5051U, 0xbd1354183d7df667U, 0x3cafaddd3cb206f0U, 0xbe59ffe7bbdb8da3U,
  0xbe160148be479d06U, 0xbe8e12edbee2cfd6U, 0xbb6644e53c06452aU, 0x3d885cccbcaf005eU,
  0xbdbeacf33e5f6537U, 0xbbb7ea413da3fba4U, 0xbd2e4bd9bdbf8da7U, 0xbcaa7cc9bdefc51eU,
  0xbddd9f53bd8b791eU, 0xbdc35c6b3d257899U, 0xbd420c49be693c11U, 0xbdc2389abe8c37ebU,
  0x3dac5a0abda1bb37U, 0xbb8003b6bdb9462bU, 0xbd820860bba2a1d0U, 0xbaa7b5833d0f8a32U,
  0xbe18729ebd9bd7a7U, 0x3cbe1ec73d850b8cU, 0x3da5b1893c7e799dU, 0xbddf0501be6fe88cU,
  0xbe29207bbdabed33U, 0xbcaca7d8be3923daU, 0x3d1bfeb13dcd322eU, 0x3e7d81963ce4994dU,
  0x3ddbda41be28fdf9U, 0x3d5aa7e93dc609f1U, 0x3e89437bbc2f474bU, 0xbd582b263ca735c9U,
  0x3c5bf5243e8491b3U, 0x3baee04bbc2e528cU, 0xbd8bd84ebd154781U, 0x3d8a4d33bdd6aa3bU,
  0xbe251cb4be212347U, 0x3c738a7c3ce5550bU, 0xbdd119b5be9a0dc5U, 0xbe1a29783c11b99aU,
  0xbd5a1c003d9c6ca9U, 0xbba1518abde3fe16U, 0xbdbbc36dbc49de9aU, 0xbd9991203e2887faU,
  0xbdaf971fbdb374b5U, 0xbda0650a3e021617U, 0x3de509d13e16f528U, 0x3d1be9c53d7cefa0U,
  0xbd92e9293be6d3a2U, 0xbcd1d9b2be3c25a2U, 0x3d3a8f2fbd3dee09U, 0xbc9cd0543c1b265cU,
  0x3e0800df3e061b1bU, 0x3dee4915bd48a029U, 0xbdf922d63e08a299U, 0x3d4f48133d8db098U,
  0x3d1cd8cabdef3d47U, 0xbded7302be031986U, 0xbdad7d523d72d16eU, 0x3d685dbcbe703f03U,
  0xbdd896d4bda16b24U, 0xbd5de6893ed167b0U, 0x3eb0df8abd417f26U, 0xbe076b433d2f3c6dU,
  0x3e003bc03ee008e0U, 0x3e0a9259bd108b4cU, 0xbcd599943e2ec131U, 0x3e41a6433d019e73U,
  0xbdc55cef3e764707U, 0x3dc237263cc5a906U, 0x3e0341d4bde04367U, 0x3d88f3ab3e5e163eU,
  0x3e9ef2943e400640U, 0x3e2dc8f03e88d887U, 0x3ec403123ed8884cU, 0x3eb0040e3ebcc0bbU,
  0x3d8fcc373e229a7fU, 0x3d4c26ca3d7e8a63U, 0xbcf3ca453e0749f4U, 0xbd2110a23d39395cU,
  0x3d3c3cc8bd781749U, 0xbdb32ec53db4f389U, 0x3d3be886bd29110bU, 0x3e14c9bcbe42b5b1U,
  0xbdb66f593e5d60e6U, 0xbd08741a3d883ccfU, 0x3c590c5a3c8a6be2U, 0x3dee2af83e1a14b0U,
  0x3d7d94103db2381fU, 0xbd830764be3de4efU, 0x3ddc143a3e1a51d1U, 0x3d9f32423d44f20fU,
  0x3e416beb3d29c49dU, 0x3e1de8d93e9e94bdU, 0xbc366a0f3d7920e1U, 0xbd2d91fb3e7145f0U,
  0xbe2cd791bbf9e7a4U, 0xbd6058203cc07d14U, 0x3d4ae921bcb979f7U, 0x3c9292e6bc0e9600U,
  0x3e043c343b44967eU, 0x3d9bf7dd3d286bc5U, 0x3e19bef73d1c7591U, 0x3d9bcd533c343042U,
  0x3da7aaf6bd7f33d1U, 0x3d11a4adbd99818fU, 0xbd18a3953daf2165U, 0x3d85e6833db2f79fU,
  0x3d8cde74bdaa0364U, 0x3e2522193d8d8bfeU, 0x3da1705c3e3c0483U, 0x3de422573e8887d3U,
  0x3d3bb549be42b9e1U, 0xbe14d031bda37c7cU, 0xbe84f7dfbdcdaf6dU, 0xbe2a0f323d1ee2a1U,
  0x3d96d5d9be3004b6U, 0xbeb072cfbe8af35bU, 0x3c5b6cee3e16b7abU, 0x3e62f1adbe2c4100U,
  0x3d8ed45fbd191e90U, 0xbe2898523d96bdfaU, 0x3d13030dbe193493U, 0xbe18a312bd685d2dU,
  0x3d6870643dd41ec5U, 0x3b8243f8be968a72U, 0xbdd14e29be4f877aU, 0xbe7c16ffbdb9e984U,
  0xbe5b40f9bed4b770U, 0xbdaad71abc90aebdU, 0xbd86ac563dc01d51U, 0xbd6854ddbd2f6466U,
  0xbe0d282dbcf45be4U, 0xbd4d5d8c3bc6b136U, 0x3d2eec3dbe1a82f5U, 0xbd79cfe43cafa7b6U,
  0xbd5b3cfd3e6848ceU, 0x3def0ee4bd8a43c1U, 0x3da9615f3b7a5dcbU, 0x3c44f6893e133aa8U,
  0xbdc5f0993e01e96bU, 0x3e22f9edbc0ec247U, 0x3c6f4612bd7c7725U, 0xbd9738ca3c474294U,
  0xbe1f9ecebcbcc3a7U, 0xbea2c1babe1eb96aU, 0xbe980442bea1ca5eU, 0xbe20a624bdcf104dU,
  0x3e07e9bdbbb253ddU, 0xbd28160fbdd37db4U, 0xbe32c11c3c623f81U, 0x3db2c7b33d26aa43U,
  0x3e122c603db46ca6U, 0x3e2ac73ebc357b12U, 0x3c2e556c3e286845U, 0x3d5bd5873cc9c299U,
  0x3e0103c1bdc6fe3aU, 0xbbeff4723dd1adceU, 0x3e25cbddba62d629U, 0x3e0105cabd86d797U,
  0xbe2f36053d520b17U, 0x3dbc819c3e102061U, 0x3cbaba7ebd2831beU, 0xbc1d4ca5bda6187aU,
  0xbc89a6d0bd382ea2U, 0x3c9cbe02bef2d50fU, 0xbeb1484b3e07fa3aU, 0x3dfc14cb3a176199U,
  0xbdb8d6f13d69dfbdU, 0xbd42aca3bdf60dc3U, 0xbdffe2763eaec5bbU, 0x3ee5c6143d2fc2efU,
  0x3d057fedbd8b554fU, 0x3d098b4c3e927488U, 0x3df71fd9be27c0c2U, 0xbdcfbcc7bda0c58aU,
  0x3e1f63db3cf868f0U, 0xbe0eecb3bd42a266U, 0x3b22fbf43e94ad12U, 0x3e92e215bea2adfeU,
  0xbd7b18f6bdd73e9aU, 0xbd51c9393d51db38U, 0x3c3f3d2dbe5e05b8U, 0xbe30cd74be5a9d15U,
  0xbe834e503d360585U, 0x3e9488c6bd6bf67fU, 0xbe3ec0d33cbee5aeU, 0x3d8f18ee3dbc631dU,
  0xbdcd1540bd01d65dU, 0x3cd06abcbe48e65aU, 0xbdc1a788bd6b8d96U, 0xbc1218863d04d335U,
  0x3d7ebcdfbe8acaf4U, 0xbed8a38c3d7cafe0U, 0x3e85059bbea418b6U, 0xbef2b6fcbe9365cfU,
  0x3d7617b43e4e2231U, 0x3e899c7abf12005dU, 0xbea1becabd8d9fecU, 0x3d77fa163dd03f9fU,
  0xbc898b1cbe62cf6dU, 0xbe456d013bdd8013U, 0x3bef545c3dedef56U, 0x3e5ce18e3cdff3f8U,
  0xbdf73c6d3e7167e5U, 0xbde93d163c8f1728U, 0x3d67f87bbd46a390U, 0xbe41f4ac3de80aa9U,
  0xbe26a8723d26ecf3U, 0xbe329231bece34f4U, 0xbe4783edbdb7f0f6U, 0xbeb7a222bca5a03eU,
  0x3df6cd44be65ab35U, 0xbdec94a8be9a9765U, 0xbdc825373dd80248U, 0x3df10c1dbe22e51bU,
  0xbd7192a73db9629aU, 0x3d612297bd8229c7U, 0xbd290e213d687e9bU, 0xbd3586c33e3206deU,
  0x3d95e063be02301dU, 0xbe1be2183c92ead7U, 0x3dad94e63e2a2f92U, 0x3e15da21bd4254f0U,
  0x3da694fb3dfde446U, 0x3dddf41abd3eabfcU, 0x3e57ae25bc9adfe2U, 0xbd7ca261bda63687U,
  0xbcbef7a7bd6c8ac4U, 0xbdfe8159bd81a99dU, 0x3c3bb10a3c54152aU, 0x3e3c9781be017b70U,
  0x3c136857bc24edc9U, 0x3de06caf3d51de12U, 0x3e1b9a2abdc65810U, 0x3de227043dc42d0bU,
  0xbd851a0ebd8a5395U, 0xbe1089d7bd8c53e6U, 0xbcd02b72bcc40232U, 0x3cca8759be171f42U,
  0xbe1dc0c8be101757U, 0xbdca9d11be08ddceU, 0x3d22c0543e2a8290U, 0x3e5e78233d407691U,
  0x3dab51283e2d460dU, 0x3e078dbe3d39d399U, 0x3d89d6ba3e934db3U, 0x3d4a024f3df5ae2cU,
  0xbd4e7836be06d5f3U, 0x3d7898ecbdd7f694U, 0xbd942d683d9f58b0U, 0xba9b153a3e0347a1U,
  0x3e33dcf33de235c1U, 0x3d109c6a3d17504bU, 0xbd182923bd0e63e7U, 0xbca9ee8bbd4d69e9U,
  0xbd9f1449bd22f6c2U, 0xbdb025243d6d9470U, 0x3d4debcfbdd1f591U, 0x3d90ae31bd8f1ce4U,
  0x3c96d77c3e60be16U, 0x3e831c34bde5e1d8U, 0xbe47ab40bd9a1757U, 0x3e7ba2933e2d6d3fU,
  0x3e1ed5513e68a479U, 0x3e011d8a3cf8ef80U, 0x3e316ba73d507719U, 0x3e52a3ef3e0ec5ffU,
  0x3dadc3bc3dfc965fU, 0x3d34dc443bf40d44U, 0x3e55753b3df41027U, 0x3d9e526d3d2afd2bU,
  0x3e3e60543dda9dbbU, 0x3e12ae413db4d52bU, 0xbda4df203cf69aa8U, 0xbdfa06ac3db9a5fdU,
  0xbd7f20fd3cc02d76U, 0xbc66a0d8bdba2159U, 0xbd394e923e28da49U, 0x3e5a60373df59ec8U,
  0xbe4b9232be4e46cbU, 0xbe9a261d3e7b7a36U, 0x3e3cf3583c3760a9U, 0x3db17d6f3e755435U,
  0x3e716fe63e1e6facU, 0x3d94c33f3e807439U, 0x3e3020373ddf4a27U, 0x3d2dd3c43df87c29U,
  0xbcb94cd43c8e14a1U, 0x3e0dbf943d32126fU, 0x3e7b040d3dfc3344U, 0xbdacf70dbc51a90dU,
  0x3d0fdf2b3e21e09cU, 0x3dc6bc5d3c541308U, 0xbca267553c974bd2U, 0x3d89a3703e8d2decU,
  0xbcf549e03cca4e91U, 0x3dfa7fc93e20d34eU, 0x3d4f286bbcbd7d93U, 0x3c9f62cf3da5a81cU,
  0x3df31a2fbe103eadU, 0xbe0210923ddb7ba5U, 0x3e81d15fbd4b7e94U, 0x3e1f6fda3e76f6beU,
  0x3dfbaa283e00e86fU, 0x3c8d0afabdba2e30U, 0xbd182b19bdeffa4cU, 0xbe314b8fbe5aadc8U,
  0x3e567d7abe10d863U, 0x3d4d9f8e3cf69503U, 0x3d42b64b3e416e0eU, 0x3e09048cbe129cdfU,
  0xbd9e2a0dbdbc369eU, 0x3d8c751f3e24abbdU, 0x3e8cd7293cb06c5fU, 0x3e08b1223dc6066fU,
  0x3d5851ff3e69e64cU, 0x3eb5d7043d84549dU, 0x3da3357e3d646858U, 0x3da3616c3e4048a0U,
  0x3b0e9c563b6a8d4aU, 0xbd94a1fcbd16267dU, 0x3e7450f73e23377bU, 0x3d4e32b83e643e7dU,
  0xbd80380a3dbfa138U, 0x3d610e99bd9c5dc5U, 0x3e070d46bd8e5d89U, 0x3e1e5a2ebdc0c8cfU,
  0xbda83b3bbd7e0453U, 0x3db02ef8bd95a1d4U, 0xbe81fb50bbb45912U, 0x3e08d84d3e1cc8baU,
  0x3e10e0cc3d922d66U, 0xbe0622553ddc37b4U, 0x3e1230c83dd3b329U, 0x3e1cb44abe22e3adU,
  0xbc8408083e57833bU, 0x3e45a6f4bbba6d26U, 0x3caf6bd23d2a162eU, 0x3ba8aad13e7ca0d1U,
  0x3e29afb13d66917fU, 0x3d3d3e423d9c6012U, 0xbd49060f3e122cfbU, 0xbd0f6b12bd4fa6e7U,
  0xbd38cc13be168a68U, 0x3da500ddbd083ce0U, 0x3df8743e3c43c0caU, 0x3d6dd661bccdcd0cU,
  0x3c0482623d2cee1aU, 0x3c3ceef03c0a6217U, 0xbbc7f3f63d16c489U, 0x3db08f563e2cf27cU,
  0x3dc9bdf8bd72877fU, 0x3ce1cc2a3b220a08U, 0xbddd86e83a126609U, 0xbdc022b13db6014cU,
  0x3e1aaa0b3defbc2dU, 0xbd798a983c69241fU, 0x3e1bf510bcc176f0U, 0x3d713e97bddfb6a7U,
  0x3c9c1c88be44d7d0U, 0x3ddcbe9c3ddd4cfeU, 0xbd3658e5bd85949dU, 0xbe22b90ebd97a078U,
  0xbdedaa0cbdef79ceU, 0x3d88b6c1bdb1b8efU, 0xbe4b69703d34dcb3U, 0xbd46a4a4bd96d55eU,
  0x3c9dc86bbe60b91dU, 0xbdaa39d93d5f3346U, 0x3d5ec7e7bd44a568U, 0x3d966e903e0e62c7U,
  0x3e3960b2bdca81c2U, 0xbd6169c33e0e309fU, 0xbd5a63463eb77f7dU, 0x3e5db564be3de2a9U,
  0x3d1fb6993e638b86U, 0x3e18a1d33d8146b9U, 0xbc948d0bbca8a5f2U, 0xbe16887b3de57cf7U,
  0x3d82d752bda0d02aU, 0xbe18c25e3bd16d56U, 0xbe58ed4d3e1eca12U, 0x3d069cc9be3cc53bU,
  0xbb8b4224bd0a6886U, 0x3d00b838be01b354U, 0xbcbf80803b4460f4U, 0xbe0a25bb3d4a3bdeU,
  0x3dbc8baa3caaea01U, 0x3d19d1c33de2a708U, 0x3db718883e53697dU, 0xbdd83cbcbddc1254U,
  0xbe55530c3e9b870bU, 0x3ea54928be8ff717U, 0xbe2897acbea9cec6U, 0xbdce890e3e7a97c0U,
  0x3e73709ebe25b376U, 0xbe2252d73e212acfU, 0xbdd0f5363d375f5cU, 0xbd0bc1e7bdebfc89U,
  0xbe69bebcbc730fc4U, 0x3d939f3bbdbd4b1eU, 0xbe0858fabdb2c76fU, 0xbe77ee0c3cf681ceU,
  0xbd293cf7be71766fU, 0xbdd3b629bc82f79aU, 0x3e28bff2bc220c91U, 0x3c20b3a5bdfe763eU,
  0xbd36fbe13e1882d5U, 0x3e1369f2bc53c1c8U, 0xbe51da2b3dcbeb2bU, 0x3eb5b2aabe2661a9U,
  0xbe9937c7be0d3f18U, 0xbe05af563e4bed27U, 0x3e848a18bea9f262U, 0xbe856547be9bd9b7U,
  0xbe97c0813e92623cU, 0x3e6c7c43be6e6e57U, 0xbe9c2a88bd852dd0U, 0xbd5bff083df49cbaU,
  0xbc15ae6f3d84df98U, 0xbc17a1423c173366U, 0x3d7d6e843da5f7a4U, 0xbdc4b083bde7e129U,
  0x3c6ad7e8bd73509cU, 0xbd2c70d1beaf56e9U, 0xbdf259473df9a3f2U, 0x3dd5ea7cbe152437U,
  0xbe2c6ec43db58516U, 0xbd76c2343e221010U, 0xbc52fb14bcb69a4fU, 0x3d334b9b3e4bfd90U,
  0x3e52187ebe715f0bU, 0xbe8560543d4fe6f4U, 0xbe56ec3c3c9bb096U, 0x3d519b36bef5a085U,
  0xbe8abb53be079763U, 0xbda67aec3c56865dU, 0x3d99bfa2bea42e04U, 0x3de972053e57712fU,
  0x3e38bdc23e793a2eU, 0x3c7360533d2af180U, 0xbe831d4ebd8a3ea9U, 0xbc6ea9743bfe06d6U,
  0xbdb15dbf3cf36fa8U, 0xbd419f7abe1fcc1dU, 0xbd3fc8b13d81996aU, 0xbdcef6043cca6bdeU,
  0x3c0ffcc9bdea9cd8U, 0x3d85ee613ceb405fU, 0xbd5996183b80b3ceU, 0xbe2d405a3d8bad02U,
  0x3beec622bd9790daU, 0x3cdfa626bdb3e11bU, 0xbe2223b5be75aa30U, 0xbdf863c43db2219bU,
  0xbbfbb06abe6cb439U, 0xba7c8511bd6eb2a8U, 0x3de3355a3d9f9d96U, 0xbda26378be3a3476U,
  0xbdee60c53d2fd074U, 0xbdac4f5d3c8a2f0eU, 0xbdc17af2be877a8dU, 0xbe05ae4abe1293caU,
  0x3c700aa8bdc656d4U, 0x3d536622bdb47186U, 0xbdd3c2a4bb8488cdU, 0xbd374ebc3d60485cU,
  0x3d074486bde93c0eU, 0xbd8eb64ebe3f9770U, 0xbc5223e73da76bc6U, 0x3dc4155ebe1fbf41U,
  0xbe06f4ecbd619446U, 0xbe1c9f6d3e312e51U, 0x3e1c49b3be004d73U, 0x3c994e5dbdefa5c9U,
  0x3daf72613e2efe8bU, 0x3acb2eae3e3a13edU, 0xbd6a120b3dd1a04cU, 0xbe60f9ea3d0a96c0U,
  0xbd2e700fbda7e639U, 0xbdcd6ee63c13e2acU, 0x3c0c3e2abe147a6aU, 0x3aa40cd7be1272cdU,
  0xbdbe1688bde4d5e2U, 0xbdf532493da94e9bU, 0x3e0c4048bdc7b81fU, 0x3c61bc7a3ccc8027U,
  0x3c52004d3e86cb18U, 0x3e343bb7be0af5eaU, 0xbd895d0fbd185c77U, 0x3ce6ca8f3e3b944dU,
  0x3e27b2a2bd595068U, 0xbd261052bdb87467U, 0xbcc073433e0e1835U, 0xbd4a6d653e1d4edaU,
  0x3dca17db3e0b8097U, 0xbe39c6e53d9dce36U, 0x3e53d6c83e033df6U, 0x3db9c28cbdd897cdU,
  0xbd36a788bca4377cU, 0xbdad8832bcbd8f7bU, 0xbdb30c433dcb6869U, 0x3bd65b9f3e34f7a9U,
  0x3d183b1f3d6720b4U, 0xbe654abf3d848a02U, 0xba9727c33d8ce03bU, 0x3e673a36be4a9b60U,
  0xbd32469f3dc1c924U, 0x3db72c783db3a9b0U, 0xbc1c28b83af1795dU, 0xbc14d76d3de1cc59U,
  0x3dfbd3e13d8117dfU, 0x3e2f8aed3e5a3199U, 0x3df64f563e02bb90U, 0x3e64f1ebbe65bafeU,
  0xbdb180f03e333377U, 0xbd8c2a63bc349036U, 0xbe6b4ec6be3c751dU, 0x3d9cea243db22ab5U,
  0x3c5db0d53e1127b6U, 0x3d4dc1e63d30bb27U, 0xbd8d491abddd2484U, 0xbd7f4d6ebdc578aeU,
  0xbd06904d3d6358c8U, 0xbc82979b3bfe3b21U, 0xbd0433413ddf9485U, 0x3e0f9ef4bcae9e19U,
  0x3c8cd0ab3e292e64U, 0x3e112bad3e14bd1dU, 0x3d4b5155ba103e2dU, 0x3dbab0e53dd11221U,
  0x3e0bede33e584625U, 0x3e283e84bdc01194U, 0xbcd8cae43e6fe809U, 0x3dbf79013e6a141eU,
  0x3d92ffe8bdb25651U, 0xbdedaf863e2677e5U, 0x3e322c70bd687211U, 0xbd8eec4e3e1f74c6U,
  0x3e35cf3e3e32177eU, 0xbd8a9a10be1ac22dU, 0xbe05f750bdb008b7U, 0xbdc14f883d156402U,
  0xbd926de6bdfb340bU, 0x3dd9d15c3d3fcff7U, 0x3cebf642bd011dfaU, 0x3e1484743d676a2eU,
  0x3e20d705bd0a2f2cU, 0x3e1e87763e250c64U, 0x3dcef0ea3e02be65U, 0x3e5e8e493d8f2214U,
  0x3d9d5ba33dec75aaU, 0x3e1d76dd3d99497aU, 0x3e9abab53ddb4e86U, 0x3d4349653e0c6143U,
  0x3e9efe473e54d284U, 0x3d06a27a3e86fa87U, 0xbcf637423d91fb01U, 0xbd1b639cbdcce57cU,
  0x3dc475cabcf63839U, 0xbd85152a3e1e84feU, 0xbd26f120bdecaebeU, 0x3db8037bbcf17614U,
  0x3d8d8628bd82d5f7U, 0xbd42a0833e06c369U, 0xba95f5693d2687aeU, 0x3de6a85f3de8de0cU,
  0x3d8b9f9fbd77d6fbU, 0x3d16a3d93dbe010bU, 0xbcccd7773d60ca0bU, 0x3e0288803dd97ed2U,
  0xbcab37973cdfc1fbU, 0x3e2634333e35d11eU, 0x3ca7f61d3dbce80aU, 0xbd6af11b3d8c1cc1U,
  0x3e42f9e53e59d916U, 0xbd31ec3d3ddce80eU, 0xbddd8f353e01009eU, 0x3d7d2ee13d7df293U,
  0xbd1a9b0e3d1a02dbU, 0xbdc258c6be8de61fU, 0x3d8ebea3bde880aaU, 0x3dae110f3dd8c8d8U,
  0x3c02ff063dd8b0b8U, 0xbe1e93143e28aae5U, 0xbcfa41983d96f30fU, 0x3c014c263b7c0997U,
  0xbdcee632bc1a8986U, 0xbd3b674bbdc70b61U, 0xbd9743bfbe58e1d1U, 0xbd1e6350be32b182U,
  0xbcbd2e3dbdd89b66U, 0x3d8b096b3d58de1cU, 0x3d9902ed3d2d4535U, 0x3c88b4a2bb28af6bU,
  0xbc7ea5b7bc8c4c29U, 0x3da478c7bd825939U, 0xbdcb912a3d939af2U, 0x3e1670c3bd2b8bd5U,
  0x3e7153673e1a4c47U, 0xbd9f5edb3d5fd9c0U, 0x3dd76b1a3d4fd4fbU, 0x3da996793d9d4c6aU,
  0x3e0ddd2f3cd8fcf2U, 0x3de970703e284282U, 0xbe36abf33e06bea4U, 0xbd9d7c86bc172045U,
  0xbdb8e345bd110eaaU, 0xbdb22d3dbd7efb7dU, 0xbe1ccc34bd44e3bcU, 0x3d339aa0bde4ef15U,
  0xbe0f5e9cbdbdf574U, 0xbeabd3a7bceb6545U, 0x3c8490e93d9dee8aU, 0xbb73e97fbe4fe8beU,
  0x3da0b26cbd1e36f8U, 0x3bb9a3babe07f503U, 0x3e23e33dbe07f9bfU, 0xba22cafebcc1e993U,
  0x3e0cee373e81a850U, 0x3e05b9a93dce1125U, 0x3d95056c3e606dfcU, 0x3e3f90753de77023U,
  0x3d9b07313d9c571eU, 0x3dbd99cc3e26fcccU, 0x3de532b03dd665eaU, 0x3e7b00b4bda1c26eU,
  0x3c0f455a3e14f34eU, 0x3e1e06803df4710fU, 0x3ea79c173d713c3aU, 0x3df313fb3b1574f2U,
  0x3d3e30a23df7f347U, 0x3e36e61cbded8f67U, 0xbe35f82bbd3740a2U, 0xbc406c3fbcd6d45fU,
  0xbda0d09bbaf307adU, 0x3cfaa4353bc00574U, 0xbdfeeb063dbddfa4U, 0x3e31434cbcf8dad9U,
  0x3d2dc2f8bcf2a7c5U, 0x3d979f6a3d9e174fU, 0x3e3a42373dd4b9c7U, 0x3d9065ac3e359eb1U,
  0x3e4940f83dbc659aU, 0x3d487dc13e1de3e5U, 0xbc7d2daf3d356142U, 0xbd29498e3db3a871U,
  0x3df52c8a3c8391f6U, 0x3bd010ecbd54024cU, 0xbc5f787b3dd818abU, 0xbe1d18a63e4ed46eU,
  0x3d9b22483db6602cU, 0xbe431908be44a41aU, 0xbe6ae62fbe7ee896U, 0xbdf02c94be0f4b2aU,
  0xbe253142be282e73U, 0xbd95f07f3a016d43U, 0x3da5cc53bd680cf9U, 0x3d997e0e3d46cbbeU,
  0x3e69c9113d9e7c4fU, 0x3d45ceb03c984dd6U, 0x3d051bb43e15b817U, 0x3c43a1163e5e5ea7U,
  0x3dee11733cc9bae0U, 0xbe18e1d53dfb1513U, 0x3e602f583da615f4U, 0x3e115e9bbe298eb2U,
  0xbe1f92b63e0e662dU, 0x3de8eeea3e123eabU, 0x3e36ced7be896b10U, 0xbe0eb79ebe3e9d84U,
  0xbdbb97dbbdf458a1U, 0xbeae0daabe5e5df5U, 0xbe10c334be43750bU, 0xbe47fa67be16cae4U,
  0x3e1f2bc73d25b193U, 0x3b8583edbd48d48dU, 0xbe19725fbda9a0afU, 0x3cd482a93da60e0bU,
  0x3e14f3e03d05e70fU, 0xbe6cabd5bcb122e9U, 0xbd41bb343e7e06c3U, 0xbd50cb27be9773e2U,
  0xbe58a3b5bd17501cU, 0xbbf83e343b611742U, 0x3d98d2a93e265771U, 0xbe6c1f2d3d32b17cU,
  0x3d056fe0bd6f7ac1U, 0xbea59d57be231d39U, 0xbd2479a1bcc1a2d7U, 0xbdf036d5be0cf934U,
  0xbd7cb496bbb682e0U, 0xbeb12b00bec05aaaU, 0x3e2f8c6fbd9adfc6U, 0xbd2d0f8bbbaedb44U,
  0x3ce222c73dadc183U, 0xbd592c82bc874601U, 0xbcfcf99fbdb07e29U, 0x3d55e813bd1c8ff6U,
  0xbe42cee43b86b976U, 0x3c0cbda6be40ae93U, 0xbedba9e0be401db8U, 0xbeada4aebbe66a28U,
  0x3d771148befd69f2U, 0xbe9916c3bd2de029U, 0x3c97d1ef3d03c83eU, 0xbddc2a22be36f511U,
  0xbec4f01ebd6333f7U, 0xbd30b8d83d3ae97cU, 0xbb055422bd856aecU, 0xbe0bb803be3d2f83U,
  0x3c90a3aabd3de06cU, 0x3dfe161abd44a9e5U, 0xb8dd9a583d94b2c1U, 0xbdbe562e3dc9823dU,
  0xbd73a664bcb0b3beU, 0xbbd607f63cf04b30U, 0xbe4a6e883d8b2c98U, 0x3e1ad272bdae69afU,
  0xbe93997fbdd5923dU, 0xbe5f94f43dabfe38U, 0x3e0d9a91beb0c8deU, 0xbe9433fcbd855387U,
  0xbe1de8cd3ace6a21U, 0x3dc00ee8bdec5f63U, 0xbde9db2fbdb90585U, 0xbd086aa03d717fbbU,
  0x3e215a6dbc0e3f51U, 0xbe353a933d9b54d6U, 0xbe02a06a3ba53051U, 0x3da9930cbe0d559cU,
  0xbcbdb8163e036f38U, 0x3d20a55a3dfd9efeU, 0x3c0d45b83ce99d44U, 0xbd71567bbd247722U,
  0xbdfcae94bdc275f7U, 0x3b6d8055bc20042eU, 0xbd3953e7bce38b02U, 0xbe2ddcc2bd407cddU,
  0x3d9c819ebe12406aU, 0xbe9c769bbd79ca8cU, 0xbe2feaebbc86296dU, 0x3cc9f872bd0209baU,
  0xbe8721dfbd14a6b5U, 0x3afef9653e1a9010U, 0x3e3b2963be968a16U, 0xbe03ea173cc24f8cU,
  0xbd801e933e423809U, 0xbaed8b6cbe5788ddU, 0x3e34eeb2be312625U, 0x3e14a3373e309303U,
  0x3d75b9313e064845U, 0xbe242268bd37e3b5U, 0xbdd8f697bcd32025U, 0xbd4a52e4bdff4f10U,
  0xbe0979a0bc9876a7U, 0xbda3c84bbd9fbb06U, 0x3bbd9046be1adc38U, 0xbddc4fda3a0d49f9U,
  0x3d1bd298bcac3889U, 0x3dddf5c9bdd5e63cU, 0xbeb9d06cbd8ea749U, 0x3b9171073de5caefU,
  0x3e29a31ebec4c1d6U, 0xbe49e3adbd23e6f3U, 0xbd8f2c003e34fa8aU, 0x3cf882923e14207cU,
  0x3d6b4eaa3c088d75U, 0xbdcb3ba53d1fe450U, 0x3dd238e63e03514cU, 0x3e74fc523e72e566U,
  0x3da2e7543e4e36acU, 0xbdb857f9be1901ebU, 0x3aa6c889bc9172ccU, 0xbd88772e3dc69128U,
  0x3da0eaf9be5e5a98U, 0xbe09b99c3dacd9c3U, 0x3db0a7ff3deec704U, 0x3e229df9bdad8047U,
  0x3c13bccd3dfcb7a9U, 0x3dd04f803dc8fd16U, 0x3d3262173d55e007U, 0xbdd248d53d3cfbe4U,
  0x3cdee04c39ed91c0U, 0xbdfdec2cbcdb1f77U, 0xbc63b6ae3c89e8c1U, 0xbc7da075bd5824b6U,
  0x3e6edbfe3e17061bU, 0x3bd77fc6bd88ed9eU, 0x3dcbf2373d6884deU, 0x3d2d24babd318431U,
  0xbe0fc48dbd59b77aU, 0x3dc55228bd70f732U, 0x3d633f78be0e14d3U, 0xbdbdaf433dbf98f9U,
  0x3dd3b50a3d82f6ecU, 0x3e2d3de4bdb91875U, 0x3d656eb93e056ff4U, 0x3e25c2963e37525bU,
  0xbbd7d5b13e113d41U, 0x3e51e78f3de15c15U, 0x3e0a722cbca42b9cU, 0xbe9d1edb3df11cc1U,
  0x3b6a17543e2a2238U, 0xbd69f0c9bd6eb1ecU, 0xbe49469a3e0dc8acU, 0x3e3fc8793ddbe373U,
  0x3d90bd19be3dee7aU, 0x3cab40f83e0e16e1U, 0x3dd69e7abe036427U, 0xbe641c653dd5614dU,
  0x3e1cf6463de0469aU, 0x3dd219c3bc914717U, 0x3e1186c13dfa393fU, 0x3e8b191b3e6ab5adU,
  0xbd0363b93e1d1ab8U, 0xbd338acf3b6914f4U, 0xbcb2454b3d4e63a2U, 0x3e016301bda18794U,
  0x3e0ff5e83c96e144U, 0x3ce103253d8474d7U, 0x3d948c613e05a7edU, 0x3d580f5e3e0c1ab9U,
  0x3dee7821bc5350cdU, 0x3db8211dbc3a287eU, 0xbcf47c473dcf40f9U, 0xbdbfe90d3dfcbdceU,
  0x3e7708893e2b0d86U, 0x3e1714693cd48ec4U, 0xbd8631383d89ef21U, 0xbe001bd2bcf5bd3dU,
  0x3d898033bda04634U, 0x3de6d8d2bd9df21dU, 0x3dcdfca63e17d073U, 0x3e0bb5873e340d67U,
  0x3dfc9d59bcf97c53U, 0xbbfd76ee3e2954a3U, 0x3e4f214a3dbe7574U, 0x3de50cb73d82ec8cU,
  0xbe4a3ef43d9161fcU, 0xbd1d9974bd428031U, 0x3bec2a30bdcff791U, 0xbe067ef53d2e6b9eU,
  0x3e6020c83baedcb7U, 0x3cc1f284be469d6eU, 0x3ca4fe7b3e12b9aaU, 0x3e5810693e1bbaceU,
  0x3cc584b63d6af165U, 0x3d157bd5bcdc7774U, 0xbdf200263c463641U, 0x3d97a4dbbddca4cbU,
  0x3e21fba83e6a44c9U, 0x3e218f1a3ddca5abU, 0x3b5d0aed3ea5b066U, 0x3ebdf6a93e9bea0aU,
  0x3e0cd8803d1ebe6aU, 0xbe4fc68b3cac93bfU, 0xbd48a18b3e269741U, 0x3e0e3e9c3b80e0d2U,
  0x3db2888dbde25436U, 0xbd24bbdb3d7ad040U, 0x3db155a93e01ee5eU, 0x3d57470bbd61aebaU,
  0xbe4137463d8b5196U, 0x3e3237a13d61d713U, 0x3da4bf083dae302eU, 0xbd9d64fd3e070302U,
  0x3d4555eb3dce9294U, 0x3c47dd54bd0e9fa8U, 0xbdc9f32abe05c894U, 0x3eb414f53e5ef33aU,
  0xbc414cf7bde0aaeeU, 0x3df97b96bd43eb73U, 0x3dfaa4e2bc4aff86U, 0xbdd94005bdc62972U,
  0xbdace9d13e27c094U, 0x3d1de3eebe3068a7U, 0xbd13ffc6bd2688a8U, 0xbdc1bfe93da93f41U,
  0x3dcaf0593d8a3d81U, 0x3c9be9653dbb7d5eU, 0xbe07af103c622506U, 0x3e1bcd66bc3e5241U,
  0x3dbac635be119e46U, 0xbda620ce3d8d43b5U, 0x3d7aab693ddccedeU, 0x3da6d3e5be868d11U,
  0xbe1bf94d3e088e87U, 0x3e41a07a3ded3370U, 0x3e8529753e21f833U, 0xbe29948a3dde6129U,
  0xbc852c53bd8ca3b8U, 0xbdccb2a73bfb38a9U, 0xbe1ec466bd144b7dU, 0x3cd2fbd4bdddadb8U,
  0xbaf1a0cbbe54ecb5U, 0xbeb505ffbd99dbe8U, 0xbc963ba5ba787ce4U, 0x3e1979c5be678b2aU,
  0xbe8b75ab3b4cd500U, 0x3d0f6f48bdb84e2eU, 0xbcd7ad85be000cccU, 0x3c35fa463d906b3eU,
  0xbc006d8ebc516b9bU, 0xbe3a528cbc5fcb71U, 0x3cbfd22a3a8b61ceU, 0xbda68a12bcd4e339U,
  0xbda721a53d6eee7cU, 0x3e92f27c3e15a262U, 0xbd34420b3c40ea14U, 0xbcc20f62bd4909d5U,
  0xbe503cc43cb98497U, 0x3cd1a7903d80276cU, 0x3d9c8a62beb297f9U, 0xbe3bd0e5bcdde62cU,
  0xbd0877ca3d8a8c58U, 0x3df8f5f4be81ba3bU, 0xbe03676cbd7505b8U, 0xbe86046abd19ba44U,
  0x3db26f09be62cb01U, 0xbe3151b5bdfc29e7U, 0xbe2535c4bdf39729U, 0xbdf4aa0c3a8dc043U,
  0xbcd318c0bdba5a8eU, 0xbdd3eb9cbd97e5e2U, 0xbd246c933dab793cU, 0x3e126bdabd4b3cd7U,
  0x3df27852be4b6fb9U, 0xbd91b1d33da40b68U, 0x3ddca97ebdb3611fU, 0x3a8e30463c79a801U,
  0x3d0d60eebe850c24U, 0xbe5202dfbd6c1d23U, 0xbdc2a5e23d32de82U, 0x3e310c26be401022U,
  0xbe1580573dd0f2c5U, 0xbe0ed36e3d595b72U, 0xbd087381be6d877eU, 0x3e18afb2be4e0da6U,
  0xbdaf0fa9bdaa4004U, 0xbd55b9673e265fb2U, 0x3e8c3067bd82ae41U, 0xbe4f4b88bcf9d841U,
  0x3bd748243e1ff316U, 0x3ab200e0bdeb59e1U, 0xbe3c56ba3e4dd491U, 0x3dc8bc2cbc071844U,
  0xbe8ff23a3b1fd681U, 0xbe1e242cbe484e6cU, 0x3d81fd08bd6208c9U, 0xbe6aa93d3a260cd7U,
  0x3d2c0ce33e08e220U, 0x3d1746c9be9dc1e9U, 0xbe989d283d2352b4U, 0x3df483593d1a4cf9U,
  0x3d0dc7dabeb7c435U, 0x3d6fccf2be3e2067U, 0x3c1d9d483d68d7f4U, 0x3e5568ca3ded4708U,
  0x3de23f12bdc2d310U, 0xbc72e1e03d9d0a7fU, 0x3d9c62abbd9432adU, 0x3c0f55f43c0cc7c8U,
  0x3dd40b463d0c8ba5U, 0xbd8a7927be23417eU, 0xbebfa6bfbdca664bU, 0x3d44470e3ba7bb60U,
  0xbd893845be64d291U, 0x3b888f95be255f52U, 0x3d0126613e0bf7eaU, 0x3dc4bedcbc4a1b13U,
  0x3b5ede5fbc55ccf9U, 0x3e0241aebc0353f3U, 0x3e168e7bbd8f6740U, 0xbcba534a3e192850U,
  0x39e5e1b5bdde2bd4U, 0x3d113bf33e512d95U, 0x3e526c8f3e0c277dU, 0x3e1057cd3dd27235U,
  0x3d23be813c5d630fU, 0xbcfe2ccf3cc7539aU, 0x3e110e96bd4496b3U, 0xbcf6a08bbcff347bU,
  0x3bc3169e3e01ce94U, 0xbcbb39c13d100d6fU, 0x3e528c2dbe1d13bcU, 0x3e3fe2173e6c736eU,
  0x3d5983933e350727U, 0x3d954c9b3e0bcf25U, 0x3d5ee9633e637712U, 0x3e0d468c3d3c7613U,
  0xbd24582e3d648380U, 0x3dc76dbd3d7c3c19U, 0x3da586c83caa57ddU, 0x3da6f68f3dd9de32U,
  0x3e2527703e0f2f9dU, 0x3dc9e6bd3db09186U, 0x3e11ab2f3e300c76U, 0x3e7d98123e25350fU,
  0x3e121fdcbaa486c9U, 0xbdeed4223e05698fU, 0x3e1c08413d8cfd6eU, 0x3dc8bdf23d4e861bU,
  0x3cf7fffa3d7bf9f7U, 0x3dd927a93e5ecabcU, 0x3e86ace53c630400U, 0x3dec25cc3dfbddb2U,
  0x3e49f5883e4281daU, 0x3c633c7bbd4ec70fU, 0xbc264c6d3e4bcd3cU, 0x3e0108473dce16e2U,
  0x3dd2d893bca55006U, 0x3e0307153e661676U, 0x3e589ad33d9001a9U, 0x3d31f39bbdc4942bU,
  0xbce9a0e13e028f86U, 0x3e3a49563e625da5U, 0xbc04170bbdaa878fU, 0x3c88d33d3e1a78fbU,
  0x3e0c46fab9279e26U, 0x3b892ec53d2a5a55U, 0x3e4b16de3d4e35c5U, 0x3d3429253d069167U,
  0x3e19d0683e20e763U, 0x3dd69ed3bd94fc2fU, 0x3e2f04963eaa296fU, 0x3ddfd85b3db94ce7U,
  0xbd1eb6b83dd3b84bU, 0x3e19de653e02cd5fU, 0xbcb7c5debc8c54e4U, 0xbdddc0823bbf95ffU,
  0x3e1bc6d53e0e81cdU, 0x3d707e06be486565U, 0xbe8fbe9e3dfd0a4dU, 0x3d9cbe283d641c31U,
  0x3df0c987be7b05edU, 0xbd35bfab3e58586dU, 0xbd51c2eabd53a7c3U, 0xbdff9b88bd788b8aU,
  0x3e1a83da3dda39ceU, 0xbe30c42abce4d6b2U, 0xbac247523ea0ec6bU, 0xbdba40d1bce3c46eU,
  0x3df694853e122c3dU, 0x3e8ba22ebd60b712U, 0x3d2fa11e3d71e6ccU, 0xbe236c7bbcda3eacU,
  0xbd9cd24dbe1d1bceU, 0xbe10c5413d197bd7U, 0x3e2bf0c73dbca96cU, 0x3e11ba29be99d8deU,
  0xbeb18f9f3dc23fe3U, 0x3e5db3aa3cda9c64U, 0xbd77a347be9aa1fdU, 0xbe5310163e5cd5bdU,
  0xbd95615dbcf456a4U, 0xbd8825e5bdc5d72eU, 0x3e0a2f64bdffb9a7U, 0xbe4d189ebe1908fcU,
  0xbdbfc1923e0280e4U, 0x3e581693bddcb095U, 0xbe6b94753df15e0eU, 0x3d55895e3d11c417U,
  0x3db1b4abbe8c4148U, 0x3ea2900a3e852678U, 0x3e07b09f3e199867U, 0x3c32164bbd2c36d7U,
  0xbbe84240bda56158U, 0xbde80b9dbe831f99U, 0xbe9537bfbd2253efU, 0x3dc7de01bded470eU,
  0xbd616ef9be975caaU, 0xbe432738bdab775fU, 0xbd5a8edabe8cdf8fU, 0xbe176470be1a5f1dU,
  0xbad47f8b3d1f8f8cU, 0xbd967a14bd063de4U, 0xbcc79c2abd3de41eU, 0xbd6028903be4bf10U,
  0xbd572365bde63d6cU, 0x3e1268153e042214U, 0x3cb3db8d3d45936eU, 0xbe3b65d8bd4f0426U,
  0x3c2b1ed93d8b46f1U, 0x3dcf31143c969377U, 0xbc6522d43d05494fU, 0xbc3e5b0bbd4bc45cU,
  0xbde761edbe2b7b76U, 0xbdda6e2fbe3ad10eU, 0x3b59278c3dbe0a00U, 0x3d1e44bbbdb1454cU,
  0x3dd3a5a0bba1bc97U, 0xbda3d7dfbcd9f6acU, 0xbe3356783eb460a1U, 0x3debf5a0be110d8cU,
  0xbe8b8885be3f9dadU, 0xbe6e26433e5c9ba0U, 0x3dfc10d6be9aa548U, 0x3c608c95be9cac81U,
  0xbde39efebdbb0214U, 0x3c2c4c5bbe23f519U, 0x3c1f7944be13975dU, 0x3db5e141bddcbaf7U,
  0x3da8cf7dbcdf2ca4U, 0x3dc7c2f83d285624U, 0x3d84b2603dd59726U, 0x3e8337d43cfbb765U,
  0x3dd0848a3e2825ffU, 0xbd4137663a3b7c4cU, 0x3e560444bd8c3effU, 0xbd8a0042bdac4840U,
  0xbd3f0fa73e7fc397U, 0x3ecb57d5be1727e3U, 0xbeb6d646be23dbf9U, 0xbd3286603e8bfd31U,
